#include "magic_wand_model_data.h"


// We need to keep the data array aligned on some architectures.

#ifdef __has_attribute

#define HAVE_ATTRIBUTE(x) __has_attribute(x)

#else

#define HAVE_ATTRIBUTE(x) 0

#endif

#if HAVE_ATTRIBUTE(aligned) || (defined(__GNUC__) && !defined(__clang__))

#define DATA_ALIGN_ATTRIBUTE __attribute__((aligned(4)))

#else

#define DATA_ALIGN_ATTRIBUTE

#endif


const unsigned char g_magic_wand_model_data[] DATA_ALIGN_ATTRIBUTE = {
  0x08, 0x00, 0x00, 0x00, 0x54, 0x46, 0x4c, 0x33, 0x62, 0xff, 0xff, 0xff,
  0x03, 0x00, 0x00, 0x00, 0x10, 0x00, 0x00, 0x00, 0x24, 0x00, 0x00, 0x00,
  0x78, 0x00, 0x00, 0x00, 0x24, 0x00, 0x00, 0x00, 0x05, 0x00, 0x00, 0x00,
  0x78, 0x05, 0x00, 0x00, 0xb0, 0x04, 0x00, 0x00, 0xe0, 0x02, 0x00, 0x00,
  0x60, 0x02, 0x00, 0x00, 0x54, 0x01, 0x00, 0x00, 0x01, 0x00, 0x00, 0x00,
  0x78, 0x00, 0x00, 0x00, 0x13, 0x00, 0x00, 0x00, 0x18, 0x30, 0x00, 0x00,
  0x14, 0x30, 0x00, 0x00, 0x20, 0x2f, 0x00, 0x00, 0xa8, 0x2e, 0x00, 0x00,
  0x3c, 0x2e, 0x00, 0x00, 0xec, 0x11, 0x00, 0x00, 0x98, 0x10, 0x00, 0x00,
  0xbc, 0x0e, 0x00, 0x00, 0x60, 0x06, 0x00, 0x00, 0xfc, 0x05, 0x00, 0x00,
  0x78, 0x05, 0x00, 0x00, 0xec, 0x2f, 0x00, 0x00, 0xe8, 0x2f, 0x00, 0x00,
  0xe4, 0x2f, 0x00, 0x00, 0xe0, 0x2f, 0x00, 0x00, 0xdc, 0x2f, 0x00, 0x00,
  0xd8, 0x2f, 0x00, 0x00, 0xd4, 0x2f, 0x00, 0x00, 0xd0, 0x2f, 0x00, 0x00,
  0x0f, 0x00, 0x00, 0x00, 0x4d, 0x4c, 0x49, 0x52, 0x20, 0x43, 0x6f, 0x6e,
  0x76, 0x65, 0x72, 0x74, 0x65, 0x64, 0x2e, 0x00, 0x00, 0x00, 0x0e, 0x00,
  0x18, 0x00, 0x04, 0x00, 0x08, 0x00, 0x0c, 0x00, 0x10, 0x00, 0x14, 0x00,
  0x0e, 0x00, 0x00, 0x00, 0x14, 0x00, 0x00, 0x00, 0x5c, 0x00, 0x00, 0x00,
  0x60, 0x00, 0x00, 0x00, 0x64, 0x00, 0x00, 0x00, 0x84, 0x00, 0x00, 0x00,
  0x12, 0x00, 0x00, 0x00, 0x48, 0x2f, 0x00, 0x00, 0xe4, 0x2e, 0x00, 0x00,
  0x3c, 0x2e, 0x00, 0x00, 0xd8, 0x2d, 0x00, 0x00, 0x70, 0x2d, 0x00, 0x00,
  0x1c, 0x11, 0x00, 0x00, 0xc0, 0x0f, 0x00, 0x00, 0xe4, 0x0d, 0x00, 0x00,
  0xa0, 0x05, 0x00, 0x00, 0x3c, 0x05, 0x00, 0x00, 0xb0, 0x04, 0x00, 0x00,
  0xe8, 0x03, 0x00, 0x00, 0x38, 0x03, 0x00, 0x00, 0xa4, 0x02, 0x00, 0x00,
  0x10, 0x02, 0x00, 0x00, 0x90, 0x01, 0x00, 0x00, 0xfc, 0x00, 0x00, 0x00,
  0x80, 0x00, 0x00, 0x00, 0x01, 0x00, 0x00, 0x00, 0x00, 0x00, 0x00, 0x00,
  0x01, 0x00, 0x00, 0x00, 0x11, 0x00, 0x00, 0x00, 0x08, 0x00, 0x00, 0x00,
  0x1c, 0x04, 0x00, 0x00, 0x58, 0x03, 0x00, 0x00, 0xc8, 0x02, 0x00, 0x00,
  0x24, 0x02, 0x00, 0x00, 0xac, 0x01, 0x00, 0x00, 0x10, 0x01, 0x00, 0x00,
  0x94, 0x00, 0x00, 0x00, 0x10, 0x00, 0x00, 0x00, 0x04, 0x00, 0x00, 0x00,
  0x6d, 0x61, 0x69, 0x6e, 0x00, 0x00, 0x00, 0x00, 0x8e, 0xff, 0xff, 0xff,
  0x00, 0x00, 0x00, 0x09, 0x04, 0x00, 0x00, 0x00, 0x1c, 0x00, 0x00, 0x00,
  0x10, 0x00, 0x00, 0x00, 0x04, 0x00, 0x00, 0x00, 0x0a, 0xd2, 0xff, 0xff,
  0x00, 0x00, 0x80, 0x3f, 0x01, 0x00, 0x00, 0x00, 0x11, 0x00, 0x00, 0x00,
  0x01, 0x00, 0x00, 0x00, 0x10, 0x00, 0x00, 0x00, 0xf6, 0xfb, 0xff, 0xff,
  0x00, 0x00, 0x00, 0x19, 0x01, 0x00, 0x00, 0x00, 0x8a, 0xd1, 0xff, 0xff,
  0x10, 0x00, 0x00, 0x00, 0x12, 0x00, 0x00, 0x00, 0x14, 0x00, 0x00, 0x00,
  0x20, 0x00, 0x00, 0x00, 0x02, 0x00, 0x00, 0x00, 0x01, 0x00, 0x00, 0x00,
  0x04, 0x00, 0x00, 0x00, 0x08, 0x00, 0x00, 0x00, 0x49, 0x64, 0x65, 0x6e,
  0x74, 0x69, 0x74, 0x79, 0x00, 0x00, 0x00, 0x00, 0xc4, 0xd1, 0xff, 0xff,
  0x00, 0x00, 0x0e, 0x00, 0x18, 0x00, 0x08, 0x00, 0x0c, 0x00, 0x10, 0x00,
  0x07, 0x00, 0x14, 0x00, 0x0e, 0x00, 0x00, 0x00, 0x00, 0x00, 0x00, 0x08,
  0x03, 0x00, 0x00, 0x00, 0x18, 0x00, 0x00, 0x00, 0x0c, 0x00, 0x00, 0x00,
  0x04, 0x00, 0x00, 0x00, 0x98, 0xd1, 0xff, 0xff, 0x01, 0x00, 0x00, 0x00,
  0x10, 0x00, 0x00, 0x00, 0x03, 0x00, 0x00, 0x00, 0x0f, 0x00, 0x00, 0x00,
  0x05, 0x00, 0x00, 0x00, 0x02, 0x00, 0x00, 0x00, 0x02, 0xd2, 0xff, 0xff,
  0x10, 0x00, 0x00, 0x00, 0x11, 0x00, 0x00, 0x00, 0x14, 0x00, 0x00, 0x00,
  0x30, 0x00, 0x00, 0x00, 0x02, 0x00, 0x00, 0x00, 0x01, 0x00, 0x00, 0x00,
  0x04, 0x00, 0x00, 0x00, 0x1a, 0x00, 0x00, 0x00, 0x73, 0x65, 0x71, 0x75,
  0x65, 0x6e, 0x74, 0x69, 0x61, 0x6c, 0x2f, 0x64, 0x65, 0x6e, 0x73, 0x65,
  0x5f, 0x31, 0x2f, 0x42, 0x69, 0x61, 0x73, 0x41, 0x64, 0x64, 0x00, 0x00,
  0xf4, 0xd1, 0xff, 0xff, 0xd6, 0xfd, 0xff, 0xff, 0x00, 0x00, 0x00, 0x08,
  0x03, 0x00, 0x00, 0x00, 0x24, 0x00, 0x00, 0x00, 0x18, 0x00, 0x00, 0x00,
  0x0c, 0x00, 0x00, 0x00, 0x00, 0x00, 0x06, 0x00, 0x08, 0x00, 0x07, 0x00,
  0x06, 0x00, 0x00, 0x00, 0x00, 0x00, 0x00, 0x01, 0x01, 0x00, 0x00, 0x00,
  0x0f, 0x00, 0x00, 0x00, 0x03, 0x00, 0x00, 0x00, 0x0e, 0x00, 0x00, 0x00,
  0x04, 0x00, 0x00, 0x00, 0x01, 0x00, 0x00, 0x00, 0xfe, 0xfc, 0xff, 0xff,
  0x00, 0x00, 0x00, 0x09, 0x01, 0x00, 0x00, 0x00, 0x92, 0xd2, 0xff, 0xff,
  0x10, 0x00, 0x00, 0x00, 0x10, 0x00, 0x00, 0x00, 0x14, 0x00, 0x00, 0x00,
  0x2c, 0x00, 0x00, 0x00, 0x02, 0x00, 0x00, 0x00, 0x01, 0x00, 0x00, 0x00,
  0x10, 0x00, 0x00, 0x00, 0x15, 0x00, 0x00, 0x00, 0x73, 0x65, 0x71, 0x75,
  0x65, 0x6e, 0x74, 0x69, 0x61, 0x6c, 0x2f, 0x64, 0x65, 0x6e, 0x73, 0x65,
  0x2f, 0x52, 0x65, 0x6c, 0x75, 0x00, 0x00, 0x00, 0xd8, 0xd2, 0xff, 0xff,
  0x00, 0x00, 0x0a, 0x00, 0x10, 0x00, 0x04, 0x00, 0x08, 0x00, 0x0c, 0x00,
  0x0a, 0x00, 0x00, 0x00, 0x02, 0x00, 0x00, 0x00, 0x10, 0x00, 0x00, 0x00,
  0x04, 0x00, 0x00, 0x00, 0x01, 0x00, 0x00, 0x00, 0x0e, 0x00, 0x00, 0x00,
  0x02, 0x00, 0x00, 0x00, 0x0d, 0x00, 0x00, 0x00, 0x03, 0x00, 0x00, 0x00,
  0x7a, 0xfd, 0xff, 0xff, 0x00, 0x00, 0x00, 0x16, 0x01, 0x00, 0x00, 0x00,
  0x0e, 0xd3, 0xff, 0xff, 0x10, 0x00, 0x00, 0x00, 0x0f, 0x00, 0x00, 0x00,
  0x14, 0x00, 0x00, 0x00, 0x30, 0x00, 0x00, 0x00, 0x02, 0x00, 0x00, 0x00,
  0x01, 0x00, 0x00, 0x00, 0x70, 0x00, 0x00, 0x00, 0x1a, 0x00, 0x00, 0x00,
  0x73, 0x65, 0x71, 0x75, 0x65, 0x6e, 0x74, 0x69, 0x61, 0x6c, 0x2f, 0x66,
  0x6c, 0x61, 0x74, 0x74, 0x65, 0x6e, 0x2f, 0x52, 0x65, 0x73, 0x68, 0x61,
  0x70, 0x65, 0x00, 0x00, 0x00, 0xd3, 0xff, 0xff, 0xe2, 0xfe, 0xff, 0xff,
  0x00, 0x00, 0x00, 0x05, 0x01, 0x00, 0x00, 0x00, 0x38, 0x00, 0x00, 0x00,
  0x2c, 0x00, 0x00, 0x00, 0x14, 0x00, 0x00, 0x00, 0x00, 0x00, 0x0e, 0x00,
  0x14, 0x00, 0x00, 0x00, 0x10, 0x00, 0x0c, 0x00, 0x08, 0x00, 0x04, 0x00,
  0x0e, 0x00, 0x00, 0x00, 0x03, 0x00, 0x00, 0x00, 0x01, 0x00, 0x00, 0x00,
  0x03, 0x00, 0x00, 0x00, 0x01, 0x00, 0x00, 0x00, 0x01, 0x00, 0x00, 0x00,
  0x0d, 0x00, 0x00, 0x00, 0x01, 0x00, 0x00, 0x00, 0x0c, 0x00, 0x00, 0x00,
  0x9e, 0xd3, 0xff, 0xff, 0x10, 0x00, 0x00, 0x00, 0x0e, 0x00, 0x00, 0x00,
  0x1c, 0x00, 0x00, 0x00, 0x40, 0x00, 0x00, 0x00, 0x04, 0x00, 0x00, 0x00,
  0x01, 0x00, 0x00, 0x00, 0x07, 0x00, 0x00, 0x00, 0x01, 0x00, 0x00, 0x00,
  0x10, 0x00, 0x00, 0x00, 0x22, 0x00, 0x00, 0x00, 0x73, 0x65, 0x71, 0x75,
  0x65, 0x6e, 0x74, 0x69, 0x61, 0x6c, 0x2f, 0x6d, 0x61, 0x78, 0x5f, 0x70,
  0x6f, 0x6f, 0x6c, 0x69, 0x6e, 0x67, 0x32, 0x64, 0x5f, 0x31, 0x2f, 0x4d,
  0x61, 0x78, 0x50, 0x6f, 0x6f, 0x6c, 0x00, 0x00, 0xa0, 0xd3, 0xff, 0xff,
  0xc2, 0xfe, 0xff, 0xff, 0x00, 0x00, 0x00, 0x01, 0x24, 0x00, 0x00, 0x00,
  0x18, 0x00, 0x00, 0x00, 0x04, 0x00, 0x00, 0x00, 0xb4, 0xfe, 0xff, 0xff,
  0x01, 0x00, 0x00, 0x00, 0x01, 0x00, 0x00, 0x00, 0x00, 0x00, 0x00, 0x01,
  0x01, 0x00, 0x00, 0x00, 0x0c, 0x00, 0x00, 0x00, 0x03, 0x00, 0x00, 0x00,
  0x0b, 0x00, 0x00, 0x00, 0x07, 0x00, 0x00, 0x00, 0x09, 0x00, 0x00, 0x00,
  0x2e, 0xd4, 0xff, 0xff, 0x10, 0x00, 0x00, 0x00, 0x0d, 0x00, 0x00, 0x00,
  0x1c, 0x00, 0x00, 0x00, 0x2c, 0x00, 0x00, 0x00, 0x04, 0x00, 0x00, 0x00,
  0x01, 0x00, 0x00, 0x00, 0x15, 0x00, 0x00, 0x00, 0x01, 0x00, 0x00, 0x00,
  0x10, 0x00, 0x00, 0x00, 0x0c, 0x00, 0x00, 0x00, 0x74, 0x66, 0x6c, 0x2e,
  0x63, 0x6f, 0x6e, 0x76, 0x5f, 0x32, 0x64, 0x31, 0x00, 0x00, 0x00, 0x00,
  0x74, 0xd4, 0xff, 0xff, 0x00, 0x00, 0x0e, 0x00, 0x1a, 0x00, 0x08, 0x00,
  0x0c, 0x00, 0x10, 0x00, 0x07, 0x00, 0x14, 0x00, 0x0e, 0x00, 0x00, 0x00,
  0x00, 0x00, 0x00, 0x05, 0x01, 0x00, 0x00, 0x00, 0x3c, 0x00, 0x00, 0x00,
  0x30, 0x00, 0x00, 0x00, 0x14, 0x00, 0x00, 0x00, 0x00, 0x00, 0x0e, 0x00,
  0x18, 0x00, 0x17, 0x00, 0x10, 0x00, 0x0c, 0x00, 0x08, 0x00, 0x04, 0x00,
  0x0e, 0x00, 0x00, 0x00, 0x03, 0x00, 0x00, 0x00, 0x03, 0x00, 0x00, 0x00,
  0x03, 0x00, 0x00, 0x00, 0x03, 0x00, 0x00, 0x00, 0x00, 0x00, 0x00, 0x01,
  0x01, 0x00, 0x00, 0x00, 0x0b, 0x00, 0x00, 0x00, 0x01, 0x00, 0x00, 0x00,
  0x0a, 0x00, 0x00, 0x00, 0x46, 0xff, 0xff, 0xff, 0x00, 0x00, 0x00, 0x11,
  0x01, 0x00, 0x00, 0x00, 0xda, 0xd4, 0xff, 0xff, 0x10, 0x00, 0x00, 0x00,
  0x0c, 0x00, 0x00, 0x00, 0x1c, 0x00, 0x00, 0x00, 0x40, 0x00, 0x00, 0x00,
  0x04, 0x00, 0x00, 0x00, 0x01, 0x00, 0x00, 0x00, 0x15, 0x00, 0x00, 0x00,
  0x01, 0x00, 0x00, 0x00, 0x08, 0x00, 0x00, 0x00, 0x20, 0x00, 0x00, 0x00,
  0x73, 0x65, 0x71, 0x75, 0x65, 0x6e, 0x74, 0x69, 0x61, 0x6c, 0x2f, 0x6d,
  0x61, 0x78, 0x5f, 0x70, 0x6f, 0x6f, 0x6c, 0x69, 0x6e, 0x67, 0x32, 0x64,
  0x2f, 0x4d, 0x61, 0x78, 0x50, 0x6f, 0x6f, 0x6c, 0x00, 0x00, 0x00, 0x00,
  0x34, 0xd5, 0xff, 0xff, 0x00, 0x00, 0x0e, 0x00, 0x14, 0x00, 0x00, 0x00,
  0x08, 0x00, 0x0c, 0x00, 0x07, 0x00, 0x10, 0x00, 0x0e, 0x00, 0x00, 0x00,
  0x00, 0x00, 0x00, 0x01, 0x30, 0x00, 0x00, 0x00, 0x24, 0x00, 0x00, 0x00,
  0x10, 0x00, 0x00, 0x00, 0x0c, 0x00, 0x10, 0x00, 0x00, 0x00, 0x04, 0x00,
  0x08, 0x00, 0x0f, 0x00, 0x0c, 0x00, 0x00, 0x00, 0x01, 0x00, 0x00, 0x00,
  0x01, 0x00, 0x00, 0x00, 0x00, 0x00, 0x00, 0x01, 0x01, 0x00, 0x00, 0x00,
  0x0a, 0x00, 0x00, 0x00, 0x03, 0x00, 0x00, 0x00, 0x00, 0x00, 0x00, 0x00,
  0x06, 0x00, 0x00, 0x00, 0x08, 0x00, 0x00, 0x00, 0x00, 0x00, 0x0a, 0x00,
  0x0c, 0x00, 0x07, 0x00, 0x00, 0x00, 0x08, 0x00, 0x0a, 0x00, 0x00, 0x00,
  0x00, 0x00, 0x00, 0x03, 0x01, 0x00, 0x00, 0x00, 0x9e, 0xd5, 0xff, 0xff,
  0x10, 0x00, 0x00, 0x00, 0x0b, 0x00, 0x00, 0x00, 0x1c, 0x00, 0x00, 0x00,
  0x28, 0x00, 0x00, 0x00, 0x04, 0x00, 0x00, 0x00, 0x01, 0x00, 0x00, 0x00,
  0x40, 0x00, 0x00, 0x00, 0x03, 0x00, 0x00, 0x00, 0x08, 0x00, 0x00, 0x00,
  0x0b, 0x00, 0x00, 0x00, 0x74, 0x66, 0x6c, 0x2e, 0x63, 0x6f, 0x6e, 0x76,
  0x5f, 0x32, 0x64, 0x00, 0x88, 0xd5, 0xff, 0xff, 0x7e, 0xd6, 0xff, 0xff,
  0x04, 0x00, 0x00, 0x00, 0x40, 0x00, 0x00, 0x00, 0x57, 0xf0, 0x4d, 0xbf,
  0x5c, 0x99, 0x5e, 0x3c, 0x6a, 0x8b, 0x36, 0xc0, 0x93, 0xab, 0x53, 0x3d,
  0x05, 0x99, 0x0d, 0xbf, 0x9b, 0x08, 0xca, 0x3f, 0xd7, 0xaf, 0x1b, 0x40,
  0xc3, 0x96, 0x24, 0xbf, 0x1f, 0xee, 0xeb, 0x3f, 0x0b, 0x14, 0x35, 0xc0,
  0x35, 0x6b, 0x04, 0xc0, 0x82, 0x9f, 0xae, 0x3f, 0xfe, 0x04, 0x31, 0xbf,
  0xfe, 0x02, 0x84, 0xbf, 0xb1, 0x7f, 0x23, 0x40, 0xaa, 0x77, 0x2a, 0xc0,
  0x26, 0xd6, 0xff, 0xff, 0x10, 0x00, 0x00, 0x00, 0x0a, 0x00, 0x00, 0x00,
  0x10, 0x00, 0x00, 0x00, 0x20, 0x00, 0x00, 0x00, 0x01, 0x00, 0x00, 0x00,
  0x10, 0x00, 0x00, 0x00, 0x0d, 0x00, 0x00, 0x00, 0x73, 0x74, 0x64, 0x2e,
  0x63, 0x6f, 0x6e, 0x73, 0x74, 0x61, 0x6e, 0x74, 0x31, 0x00, 0x00, 0x00,
  0x08, 0xd6, 0xff, 0xff, 0xfe, 0xd6, 0xff, 0xff, 0x04, 0x00, 0x00, 0x00,
  0x20, 0x00, 0x00, 0x00, 0xd3, 0xf2, 0xaf, 0xbf, 0x14, 0xb6, 0xed, 0xbe,
  0xbf, 0x9e, 0xc9, 0xbf, 0x58, 0xc9, 0xbe, 0xbd, 0x3a, 0x50, 0xf6, 0xbe,
  0x41, 0x3a, 0xf5, 0xbf, 0xd3, 0x50, 0x90, 0xc0, 0x96, 0x21, 0x8b, 0xbe,
  0x86, 0xd6, 0xff, 0xff, 0x10, 0x00, 0x00, 0x00, 0x09, 0x00, 0x00, 0x00,
  0x10, 0x00, 0x00, 0x00, 0x20, 0x00, 0x00, 0x00, 0x01, 0x00, 0x00, 0x00,
  0x08, 0x00, 0x00, 0x00, 0x0c, 0x00, 0x00, 0x00, 0x73, 0x74, 0x64, 0x2e,
  0x63, 0x6f, 0x6e, 0x73, 0x74, 0x61, 0x6e, 0x74, 0x00, 0x00, 0x00, 0x00,
  0x68, 0xd6, 0xff, 0xff, 0x5e, 0xd7, 0xff, 0xff, 0x04, 0x00, 0x00, 0x00,
  0x00, 0x08, 0x00, 0x00, 0x09, 0x5c, 0xe6, 0xbd, 0xc3, 0x58, 0x8a, 0xbd,
  0x7b, 0x77, 0x5a, 0xbd, 0x58, 0x70, 0x14, 0xbe, 0xa2, 0x25, 0xf5, 0xbd,
  0x7f, 0x11, 0x9a, 0xba, 0x94, 0xe1, 0xae, 0xbd, 0x48, 0xb9, 0xc4, 0xbc,
  0x30, 0x87, 0x44, 0x3e, 0xda, 0x1e, 0x4b, 0xbe, 0xa3, 0x94, 0x74, 0xbe,
  0xa3, 0x04, 0xb8, 0xbd, 0xa2, 0x04, 0x64, 0xbd, 0x98, 0xbc, 0xb5, 0x3d,
  0x38, 0x1a, 0x80, 0x3e, 0xa5, 0x9c, 0x0a, 0xbd, 0x61, 0xbf, 0x38, 0x3c,
  0x25, 0x6a, 0xc1, 0x3c, 0xc4, 0xa3, 0x44, 0x3e, 0x7b, 0x45, 0xf0, 0x3d,
  0xce, 0xae, 0x5b, 0x3e, 0x0f, 0xaa, 0x01, 0x3e, 0x1d, 0x14, 0x68, 0xbd,
  0xf5, 0xd2, 0xca, 0xbd, 0xfa, 0xe5, 0x11, 0xbd, 0xbd, 0x0d, 0x38, 0xbd,
  0xfa, 0x58, 0xf1, 0xbd, 0x2d, 0xec, 0x9d, 0xbd, 0xef, 0x76, 0x4f, 0xbd,
  0x4d, 0x51, 0x3e, 0xbe, 0xe6, 0x9e, 0xcc, 0xbe, 0x44, 0xad, 0x9e, 0xbe,
  0x67, 0x03, 0xbe, 0xbd, 0xb6, 0x10, 0x53, 0x3e, 0x12, 0xfd, 0x0b, 0xbd,
  0xa6, 0x12, 0x28, 0x3d, 0xbb, 0x4d, 0xf0, 0xbd, 0x7c, 0x68, 0xb6, 0xbd,
  0xa4, 0x55, 0x10, 0xbe, 0xbf, 0x50, 0x48, 0xbe, 0xee, 0x8b, 0x87, 0x3d,
  0x8d, 0x5b, 0x2b, 0x3e, 0x7f, 0xaf, 0x2a, 0xbd, 0x3a, 0xa4, 0x1c, 0x3e,
  0xd0, 0xb2, 0xbf, 0x3e, 0x68, 0x9f, 0x66, 0x3e, 0xc4, 0x4b, 0xff, 0xbd,
  0xe9, 0xe5, 0x71, 0xbe, 0x36, 0x3d, 0x83, 0xbd, 0x19, 0xf5, 0xbf, 0xbb,
  0xf7, 0xab, 0xc8, 0x3d, 0x39, 0xc2, 0xda, 0xbc, 0x12, 0x9d, 0x1a, 0xbe,
  0x32, 0xd1, 0x94, 0x3d, 0x6a, 0xf1, 0x86, 0xbd, 0xd6, 0xd7, 0x09, 0xbe,
  0x14, 0xca, 0x93, 0xbd, 0x93, 0x7a, 0x18, 0x3d, 0xcb, 0xbc, 0x95, 0x3c,
  0x6b, 0x2f, 0xa5, 0x3d, 0xd3, 0xbf, 0xef, 0xbb, 0x94, 0x88, 0x79, 0x3e,
  0xd0, 0x81, 0x9c, 0xbd, 0x1c, 0xc7, 0x9e, 0x3d, 0x6e, 0xd3, 0xc5, 0xbe,
  0x7c, 0x51, 0x45, 0xbe, 0x84, 0x7b, 0x82, 0x3e, 0x5e, 0x1c, 0xde, 0xbd,
  0x83, 0x06, 0x2b, 0xbe, 0x22, 0xa2, 0x90, 0xbc, 0xc0, 0x33, 0x35, 0xbe,
  0x83, 0x0d, 0xb9, 0xbd, 0x81, 0xe3, 0xa8, 0x3b, 0x2e, 0xa2, 0xde, 0x3e,
  0xde, 0xb4, 0x6d, 0x3c, 0xcd, 0x52, 0x25, 0xbe, 0xef, 0x2d, 0x1a, 0xbe,
  0x6e, 0x07, 0xfd, 0xbc, 0x9d, 0xda, 0x53, 0x3c, 0x9e, 0x9f, 0xdd, 0xbc,
  0x34, 0x5d, 0x8f, 0x3d, 0x78, 0x10, 0xb1, 0xbd, 0xa1, 0xff, 0xf5, 0x3e,
  0x58, 0xd3, 0x79, 0xbe, 0xf2, 0x3d, 0xca, 0xbc, 0x65, 0x37, 0x35, 0xbc,
  0x70, 0x1d, 0x8d, 0x3d, 0x0a, 0xdc, 0x0d, 0xbd, 0x1e, 0x16, 0x94, 0x3d,
  0xf0, 0x11, 0xd6, 0xbe, 0x9b, 0x0b, 0xde, 0xbe, 0x64, 0x61, 0x74, 0xbd,
  0x26, 0xc7, 0x8b, 0xbd, 0xf3, 0xdb, 0x22, 0x3e, 0xce, 0xb0, 0xc3, 0xbc,
  0xb1, 0xfe, 0x87, 0xbc, 0xfd, 0xb4, 0xa4, 0x3e, 0x93, 0x10, 0x6f, 0xbe,
  0x10, 0x12, 0xf7, 0x3d, 0xc7, 0x44, 0x83, 0xbd, 0xa8, 0x9c, 0x82, 0xbd,
  0x24, 0x52, 0x23, 0xbe, 0x1b, 0x12, 0x72, 0xbe, 0x62, 0x7b, 0xb0, 0xbe,
  0xf9, 0xef, 0xd2, 0xbc, 0x0e, 0xf7, 0x9d, 0xbe, 0xd3, 0x2f, 0x81, 0xbb,
  0x8a, 0xde, 0x52, 0xbe, 0x75, 0x82, 0xcf, 0xbd, 0xd1, 0x23, 0x4c, 0xbe,
  0x82, 0x73, 0xad, 0xbd, 0xae, 0x10, 0xa1, 0xbe, 0xb6, 0xf7, 0x8f, 0x3e,
  0x80, 0xf6, 0x6e, 0x3d, 0x1e, 0x14, 0x9b, 0xbd, 0x59, 0xb3, 0x6b, 0xbe,
  0xa2, 0x43, 0x40, 0x3d, 0x06, 0xf5, 0x14, 0xbe, 0x31, 0xa5, 0xba, 0x3c,
  0x22, 0x56, 0xda, 0x3d, 0x48, 0xea, 0x89, 0xbd, 0x09, 0x1a, 0x68, 0xbe,
  0xb9, 0x00, 0x07, 0xbe, 0x7b, 0x37, 0x66, 0xbe, 0x16, 0xf1, 0x11, 0x3e,
  0x3b, 0xe7, 0xe6, 0xbb, 0xa4, 0x9c, 0xb8, 0xbd, 0x10, 0x1c, 0xb2, 0x3e,
  0x00, 0x8b, 0x16, 0xbe, 0x9f, 0xae, 0xbd, 0x3c, 0xfd, 0xac, 0xd3, 0xbd,
  0xce, 0x15, 0x8f, 0x3b, 0xf0, 0xa5, 0x2d, 0xbe, 0x11, 0x84, 0x38, 0xbd,
  0xbc, 0xb8, 0x1a, 0xbd, 0x14, 0x1e, 0x13, 0xbc, 0x53, 0x1b, 0x20, 0xbe,
  0xb2, 0x16, 0x61, 0xbd, 0x20, 0xc2, 0xe9, 0xbd, 0x82, 0xb8, 0xd4, 0x3a,
  0x23, 0x2b, 0xe0, 0xbd, 0x66, 0xfc, 0xa8, 0xbe, 0x2e, 0xbf, 0x37, 0x3d,
  0xfa, 0x22, 0xa4, 0x3b, 0x0b, 0x1d, 0xb0, 0xbc, 0x9a, 0xe4, 0x88, 0xbd,
  0xac, 0x10, 0xaa, 0xbd, 0x69, 0xde, 0x75, 0x3d, 0x47, 0x1a, 0xe4, 0x3e,
  0xac, 0x0e, 0xa9, 0xbe, 0x6d, 0xc3, 0x96, 0x3b, 0x4e, 0x10, 0xe0, 0x3c,
  0xf8, 0xcf, 0xef, 0x3b, 0x37, 0x9c, 0x52, 0xbd, 0x69, 0x96, 0x96, 0xbd,
  0x4c, 0xbd, 0x35, 0x3d, 0x77, 0xf7, 0xb3, 0x3c, 0xf4, 0x11, 0x0e, 0x3f,
  0x8e, 0x31, 0xcb, 0xbc, 0x0a, 0xc6, 0x17, 0xbd, 0x16, 0x45, 0x16, 0x3f,
  0xce, 0x3b, 0x4c, 0xbd, 0xd7, 0x12, 0x8b, 0x3d, 0xeb, 0xca, 0x0a, 0xbe,
  0x93, 0xe2, 0x4d, 0xbd, 0x2e, 0x0b, 0x8b, 0x3e, 0xd9, 0xcc, 0x77, 0x3e,
  0x5a, 0x0c, 0x35, 0x3d, 0x2f, 0x6b, 0xfe, 0xbd, 0x4f, 0x32, 0xd1, 0xbd,
  0x38, 0x3f, 0x12, 0xbe, 0xad, 0xe1, 0x0a, 0xbe, 0x59, 0x22, 0x45, 0xbd,
  0x44, 0xc6, 0xcd, 0x3d, 0xe7, 0x4e, 0xec, 0xbd, 0xa9, 0xf5, 0x8e, 0xbd,
  0xd9, 0x2d, 0x00, 0xbe, 0x32, 0x13, 0x71, 0xbd, 0xbe, 0x8a, 0x6a, 0xbe,
  0x0a, 0xbd, 0x9f, 0x3c, 0x04, 0x2d, 0x27, 0xbe, 0x24, 0xc0, 0x4a, 0x3d,
  0x70, 0x14, 0x1e, 0xbe, 0xc0, 0xe5, 0xa0, 0xbd, 0x63, 0xfa, 0xff, 0xbd,
  0x3a, 0xf7, 0x96, 0xbd, 0xaa, 0x33, 0x87, 0xbe, 0x5a, 0xb2, 0xc0, 0x3d,
  0x5f, 0xf8, 0x34, 0xbe, 0xee, 0x23, 0x51, 0xbc, 0xea, 0xb0, 0x7d, 0xbe,
  0x30, 0xbc, 0x95, 0xbd, 0x5a, 0x4d, 0xdd, 0x3d, 0x92, 0xd5, 0x83, 0xbe,
  0xcf, 0x19, 0xa4, 0xbe, 0xa4, 0x8a, 0x8d, 0x3c, 0x4e, 0xff, 0xa7, 0xbe,
  0xff, 0xb2, 0x9a, 0x3d, 0xa4, 0x94, 0x33, 0xbe, 0xaa, 0xaf, 0xda, 0xbd,
  0xbb, 0x81, 0x52, 0x3d, 0xb4, 0xc5, 0x3d, 0xbe, 0x3d, 0xd7, 0x8e, 0xbe,
  0x53, 0xae, 0x40, 0xbd, 0x6e, 0xc3, 0x0a, 0xbd, 0x85, 0x2a, 0xe7, 0x3d,
  0x92, 0xc9, 0x78, 0xbe, 0x9a, 0x73, 0xf9, 0xbd, 0x40, 0x1d, 0x22, 0xbe,
  0x4e, 0x8c, 0x6e, 0xbd, 0x85, 0x9b, 0x80, 0x3c, 0x27, 0x54, 0x23, 0x3c,
  0x99, 0xf1, 0xa4, 0xbc, 0xdf, 0x58, 0x5a, 0xbd, 0xff, 0x11, 0x31, 0xbe,
  0xca, 0xe9, 0x8e, 0xbd, 0x0d, 0xdf, 0xf0, 0x3b, 0x3e, 0x10, 0x93, 0x3e,
  0xd2, 0xda, 0xc4, 0x3e, 0x61, 0x0a, 0xb8, 0xbd, 0x00, 0x8d, 0xa3, 0xbd,
  0xe5, 0x4e, 0xf1, 0xbc, 0xd5, 0xee, 0x91, 0x3e, 0x96, 0xce, 0x83, 0x3e,
  0xda, 0xf0, 0x36, 0xbe, 0x5d, 0xc8, 0x0b, 0x3f, 0x0c, 0x0e, 0xc4, 0xbd,
  0x7b, 0xa3, 0x0d, 0xbe, 0xb1, 0xd9, 0x4c, 0xbb, 0x9d, 0x7e, 0x01, 0x3a,
  0xa4, 0xdb, 0x8b, 0xbe, 0xd5, 0xfb, 0x9e, 0xbe, 0x6f, 0x94, 0x72, 0xbe,
  0x08, 0x34, 0xe6, 0xbd, 0x86, 0x55, 0x8d, 0x3d, 0x02, 0x03, 0x7c, 0xbd,
  0x67, 0xef, 0x8f, 0xbe, 0x74, 0x93, 0x26, 0xbe, 0xd3, 0xf7, 0x21, 0xbe,
  0xe5, 0x34, 0x9a, 0xbc, 0x4c, 0x46, 0xf5, 0xbd, 0xac, 0xc1, 0x4a, 0xbc,
  0xf2, 0x77, 0x20, 0xbe, 0x34, 0x0e, 0xc5, 0xbd, 0xe1, 0xc4, 0x23, 0xbe,
  0x4e, 0x45, 0xef, 0xbd, 0xcb, 0xcf, 0xad, 0xbd, 0x77, 0x87, 0x3d, 0xbc,
  0xb6, 0x4d, 0xe6, 0x3e, 0x9e, 0x9f, 0x13, 0xbe, 0x44, 0xf6, 0x97, 0xbe,
  0x84, 0x6a, 0xa7, 0xbd, 0x4c, 0x48, 0xba, 0x3d, 0xf1, 0x9a, 0xc3, 0x3c,
  0x98, 0x9e, 0x0f, 0xbe, 0x4f, 0x98, 0x9b, 0xbc, 0xfe, 0x90, 0xf5, 0x3c,
  0xf7, 0x7f, 0xf9, 0x3d, 0x27, 0x71, 0x0f, 0xbc, 0x8b, 0x66, 0x61, 0xbd,
  0x26, 0xb6, 0xc7, 0x3c, 0xe3, 0x72, 0xa4, 0x3e, 0x88, 0xab, 0xc2, 0xbd,
  0x38, 0x93, 0x19, 0xbd, 0x6f, 0x9a, 0x21, 0x3e, 0x76, 0x6c, 0x10, 0xbe,
  0x94, 0x3c, 0xbb, 0x3d, 0xe7, 0x8c, 0x2e, 0x3c, 0x0a, 0x28, 0x5c, 0x3d,
  0x19, 0x1d, 0x0a, 0xbe, 0xea, 0xa2, 0x6b, 0xbd, 0xc7, 0xe9, 0x0b, 0xbc,
  0x8b, 0x60, 0xfd, 0x3c, 0xa1, 0x56, 0xf6, 0x3c, 0xd0, 0x91, 0xb5, 0xbc,
  0xb7, 0xdc, 0x6a, 0x3d, 0xf3, 0xcb, 0xb9, 0x3b, 0xee, 0x91, 0x2f, 0xbd,
  0x20, 0xc0, 0x8a, 0x3d, 0x9b, 0xd6, 0x4c, 0x3d, 0x6d, 0x3c, 0xc1, 0xbd,
  0xbd, 0xf6, 0x97, 0xbd, 0x77, 0x2a, 0x10, 0xbb, 0x67, 0x3a, 0x2a, 0xbd,
  0xac, 0x6e, 0x1f, 0xbd, 0x4a, 0x6c, 0x16, 0xbd, 0x72, 0x34, 0x04, 0x3d,
  0x89, 0x00, 0x2e, 0x3e, 0xc0, 0xdf, 0x41, 0x3e, 0xb9, 0x3c, 0x67, 0x3e,
  0x60, 0x76, 0xed, 0x3d, 0x86, 0xb8, 0x97, 0xbe, 0x78, 0x6a, 0xa5, 0x3c,
  0xe3, 0x0f, 0x68, 0x3c, 0x08, 0xe9, 0x03, 0x3f, 0x0e, 0xb4, 0x90, 0x3d,
  0xb3, 0x02, 0x15, 0x3d, 0x3b, 0xcc, 0xc8, 0xbe, 0x82, 0x6b, 0xdf, 0xbc,
  0xfc, 0x7b, 0xd9, 0xbe, 0x41, 0x5b, 0xd0, 0xbd, 0x0f, 0xa4, 0x6c, 0x3c,
  0xd5, 0xdf, 0x18, 0xbe, 0x6e, 0x08, 0x17, 0xbe, 0x96, 0xa5, 0xc3, 0x3d,
  0x82, 0x0d, 0xb0, 0xbe, 0x5c, 0xb4, 0x8c, 0xbe, 0x08, 0x8e, 0xbc, 0x3d,
  0xbe, 0xe9, 0xba, 0xbd, 0x81, 0xcf, 0x3a, 0x3e, 0x32, 0x9a, 0x2e, 0xbe,
  0x49, 0xa7, 0x4a, 0xbe, 0x50, 0x42, 0x1c, 0x3d, 0xe5, 0x35, 0x85, 0xbe,
  0xc2, 0xba, 0x61, 0xbe, 0x4f, 0x2a, 0x02, 0x3e, 0x69, 0x89, 0xd2, 0xbd,
  0xa0, 0x03, 0x80, 0x3e, 0xd5, 0xa2, 0x5f, 0xbe, 0x75, 0x7b, 0x81, 0xbd,
  0x34, 0xbf, 0xdc, 0xbd, 0xde, 0x87, 0x14, 0xbd, 0x2a, 0x71, 0xbb, 0xbe,
  0x69, 0x8b, 0xd5, 0xbd, 0x93, 0xe9, 0xe9, 0xbd, 0x7e, 0x60, 0xf4, 0xba,
  0xe8, 0xef, 0xad, 0xbe, 0xff, 0x1c, 0x74, 0xbe, 0x88, 0xa1, 0xa2, 0x3e,
  0x65, 0xf9, 0x2b, 0x3d, 0x8f, 0xb1, 0x06, 0x3d, 0xea, 0x94, 0x9a, 0xbd,
  0x3a, 0x69, 0x86, 0x3d, 0x16, 0x0d, 0x39, 0x3e, 0x62, 0x01, 0xe1, 0xbe,
  0xc0, 0x77, 0x9f, 0xbe, 0x2f, 0xc5, 0x18, 0xbe, 0xdc, 0x2c, 0x98, 0x3e,
  0xfe, 0x6d, 0x50, 0x3e, 0x1b, 0xd8, 0x03, 0xbe, 0x66, 0x14, 0x21, 0x3d,
  0x89, 0x07, 0x40, 0xbe, 0xdc, 0x8a, 0x50, 0xbe, 0xc1, 0x0a, 0x4c, 0xbe,
  0xf6, 0x6b, 0x1d, 0xbe, 0xb4, 0xf1, 0xdc, 0xbd, 0xc9, 0xa2, 0x01, 0x3e,
  0xbc, 0x74, 0x1a, 0xbe, 0xc2, 0x30, 0xc4, 0xbe, 0x80, 0x2c, 0x3b, 0xbe,
  0x54, 0x7d, 0x01, 0x3e, 0x9b, 0xd7, 0xe8, 0x3d, 0x9e, 0x30, 0xb5, 0xbe,
  0x78, 0x1d, 0x1e, 0xbd, 0x74, 0x79, 0xfa, 0xbd, 0x8d, 0xa2, 0xac, 0xbe,
  0xee, 0x26, 0xf5, 0xbe, 0x01, 0x1d, 0x7a, 0xbe, 0xe8, 0xeb, 0x23, 0xbe,
  0x3f, 0x7e, 0x11, 0xbd, 0xb4, 0xe5, 0x46, 0xbe, 0xd1, 0xb4, 0x6c, 0x3b,
  0x42, 0xd6, 0x78, 0x3b, 0x2e, 0x4b, 0x26, 0xbe, 0x5a, 0xc4, 0x04, 0xbf,
  0x42, 0xbc, 0x58, 0xbe, 0x2a, 0x14, 0xfe, 0x3d, 0x0b, 0x4a, 0x48, 0x3d,
  0x4b, 0x27, 0xdf, 0x3d, 0xa6, 0xe2, 0xbe, 0xbb, 0x68, 0xc9, 0x26, 0x3e,
  0x9e, 0xa9, 0x91, 0xbe, 0x32, 0x6b, 0x44, 0x3d, 0xf0, 0xf4, 0xdf, 0x3d,
  0xbd, 0x62, 0x95, 0x3e, 0xcf, 0x1a, 0x0a, 0xbc, 0x97, 0x13, 0xb2, 0x3e,
  0x85, 0xcd, 0x8e, 0xbe, 0x2b, 0x2e, 0xa3, 0xbe, 0x7f, 0x94, 0xb7, 0xbe,
  0x85, 0x19, 0x93, 0xbd, 0xba, 0xfd, 0x3c, 0x3d, 0x82, 0xcf, 0x3f, 0xbe,
  0xa7, 0xda, 0xf4, 0xbd, 0xb6, 0x51, 0x49, 0xbe, 0xa1, 0x6b, 0x76, 0x3d,
  0x74, 0x5c, 0x83, 0x3b, 0x39, 0x6f, 0x30, 0xbc, 0x02, 0x24, 0x63, 0x3d,
  0x1b, 0x8d, 0x0d, 0xbd, 0x1b, 0xe8, 0xc3, 0xbd, 0x61, 0x33, 0x12, 0xbe,
  0xb2, 0xb7, 0xb7, 0xbd, 0x9e, 0x22, 0x2c, 0x3d, 0xe2, 0x72, 0xe2, 0xbc,
  0x7e, 0x73, 0x8d, 0xbb, 0x1c, 0x9f, 0x8d, 0xbd, 0x52, 0xa6, 0x55, 0x3f,
  0xff, 0x1d, 0x33, 0x3b, 0x68, 0x84, 0x90, 0xbd, 0x79, 0x9c, 0xc7, 0xbd,
  0x77, 0xd0, 0x7c, 0xbb, 0xa1, 0x67, 0x24, 0x3d, 0x69, 0xd3, 0x8a, 0xbb,
  0xf0, 0x73, 0x39, 0x3e, 0xa2, 0x68, 0x70, 0xbe, 0x48, 0x44, 0x3a, 0x3c,
  0x61, 0xcf, 0x5d, 0xbd, 0xe0, 0x6f, 0x6b, 0xbe, 0xbf, 0x70, 0xa9, 0xbc,
  0x7d, 0x14, 0x9d, 0x3c, 0x9f, 0xd8, 0x82, 0xbd, 0x71, 0x8a, 0x89, 0xbd,
  0x38, 0x58, 0x0b, 0x3e, 0x16, 0xf8, 0x40, 0xbd, 0x97, 0x67, 0xa4, 0xbd,
  0x03, 0x6c, 0x2a, 0xbf, 0x9c, 0xd7, 0x50, 0xbe, 0x4b, 0x10, 0x39, 0xbe,
  0x20, 0x95, 0x0d, 0xbe, 0x5a, 0x32, 0xc4, 0xbe, 0x54, 0xa5, 0x08, 0xbe,
  0xf9, 0x27, 0xb2, 0xbd, 0x1f, 0x7c, 0x6f, 0xbd, 0x81, 0x68, 0xb6, 0xbe,
  0x84, 0x9a, 0x54, 0xbe, 0x90, 0x86, 0x1d, 0xbe, 0x93, 0xa2, 0x57, 0xbc,
  0xd0, 0x1b, 0x67, 0xbd, 0xd5, 0x47, 0x13, 0x3f, 0x70, 0xdc, 0x44, 0xbd,
  0x26, 0x08, 0xab, 0x3b, 0x00, 0xce, 0x28, 0xbe, 0x09, 0xbb, 0x62, 0xbe,
  0x74, 0x99, 0x01, 0xbe, 0x56, 0x11, 0xa7, 0xbd, 0xce, 0xc3, 0x8f, 0xbc,
  0x6a, 0xbd, 0xbe, 0x3e, 0x4d, 0x1e, 0xe6, 0x3c, 0x34, 0xe9, 0x91, 0xbc,
  0x60, 0xc9, 0xca, 0xbd, 0xa0, 0x59, 0xf4, 0xbd, 0x29, 0xe1, 0xea, 0xbc,
  0x76, 0x2b, 0x7f, 0x3e, 0x37, 0x92, 0xc0, 0x3e, 0x91, 0x62, 0x76, 0xbe,
  0xe1, 0x13, 0x0b, 0x3d, 0xd6, 0x64, 0xad, 0xbc, 0x9a, 0xb9, 0xcf, 0xbc,
  0x3e, 0x47, 0x76, 0xbd, 0x74, 0xae, 0x88, 0xbd, 0x83, 0xa5, 0xc1, 0xbd,
  0x2f, 0xce, 0x13, 0xbe, 0x01, 0xc7, 0x59, 0xbd, 0x64, 0xb5, 0xbe, 0xbd,
  0x03, 0x42, 0xbf, 0xbd, 0x9e, 0xfd, 0xb0, 0x3e, 0xe9, 0x5a, 0x6b, 0xbd,
  0x1c, 0x89, 0x0c, 0xbd, 0x94, 0xd0, 0x10, 0xbe, 0xd2, 0x2b, 0xdd, 0xbd,
  0x66, 0x67, 0xe0, 0xbd, 0x48, 0x26, 0xf8, 0xbd, 0xe6, 0xb4, 0xb4, 0xbd,
  0x9f, 0x46, 0x10, 0xbd, 0xa4, 0xf5, 0x6c, 0xbd, 0xa2, 0xa4, 0x0a, 0xbe,
  0xed, 0xb4, 0xc2, 0xbe, 0x4b, 0x44, 0xd3, 0xbe, 0xa3, 0x04, 0x49, 0xbe,
  0xd9, 0x17, 0x81, 0xbe, 0x0d, 0xe2, 0xac, 0xbe, 0x7b, 0x45, 0xa4, 0xbe,
  0x15, 0x3a, 0x70, 0xbe, 0x32, 0xb8, 0x60, 0xbe, 0x18, 0x51, 0x23, 0xbe,
  0xa6, 0x2b, 0xd1, 0x3d, 0xe1, 0xf4, 0x8e, 0x3d, 0xa8, 0xca, 0x37, 0xbd,
  0xb9, 0xf0, 0xc7, 0xbd, 0x01, 0x6d, 0xb6, 0xbc, 0xa2, 0x47, 0xd1, 0xbd,
  0x35, 0xf9, 0x03, 0xbe, 0xdd, 0x11, 0x39, 0xbe, 0x78, 0x9b, 0x48, 0xbe,
  0x28, 0x4f, 0x49, 0xbd, 0x90, 0x10, 0x36, 0xbd, 0x8f, 0xf8, 0x7e, 0x3c,
  0x89, 0xf0, 0x7b, 0xbd, 0x8d, 0xea, 0x9d, 0xbe, 0x93, 0xba, 0x80, 0xbe,
  0x19, 0x89, 0x4e, 0xbd, 0xf2, 0x1e, 0x80, 0xbd, 0xa6, 0xee, 0xee, 0xbb,
  0x3f, 0x3a, 0x3d, 0x3d, 0x56, 0xca, 0x34, 0x3c, 0x7b, 0x05, 0xbf, 0x3c,
  0x16, 0xaf, 0xaf, 0xbe, 0x46, 0x11, 0x15, 0xbe, 0x0c, 0x16, 0xde, 0x3e,
  0x01, 0xe0, 0xb0, 0x3d, 0x85, 0xd0, 0xcd, 0x3e, 0x82, 0xd6, 0x3d, 0x3c,
  0xa9, 0x6f, 0x59, 0xbc, 0x30, 0x23, 0x02, 0x3c, 0x16, 0x97, 0xbd, 0xbd,
  0x6d, 0x94, 0x83, 0x3d, 0x0d, 0xaf, 0x92, 0xbd, 0x90, 0xc8, 0xc9, 0x3d,
  0xa9, 0xac, 0xaf, 0xbd, 0xeb, 0xe5, 0x59, 0xbd, 0x7a, 0x08, 0xc2, 0xbd,
  0xc6, 0xde, 0xff, 0xff, 0x10, 0x00, 0x00, 0x00, 0x08, 0x00, 0x00, 0x00,
  0x1c, 0x00, 0x00, 0x00, 0x38, 0x00, 0x00, 0x00, 0x04, 0x00, 0x00, 0x00,
  0x10, 0x00, 0x00, 0x00, 0x04, 0x00, 0x00, 0x00, 0x01, 0x00, 0x00, 0x00,
  0x08, 0x00, 0x00, 0x00, 0x1a, 0x00, 0x00, 0x00, 0x73, 0x65, 0x71, 0x75,
  0x65, 0x6e, 0x74, 0x69, 0x61, 0x6c, 0x2f, 0x63, 0x6f, 0x6e, 0x76, 0x32,
  0x64, 0x5f, 0x31, 0x2f, 0x43, 0x6f, 0x6e, 0x76, 0x32, 0x44, 0x00, 0x00,
  0xc0, 0xde, 0xff, 0xff, 0xb6, 0xdf, 0xff, 0xff, 0x04, 0x00, 0x00, 0x00,
  0x80, 0x01, 0x00, 0x00, 0x9f, 0x85, 0x3b, 0xbe, 0x75, 0x5d, 0x13, 0x3c,
  0xd3, 0x5c, 0x43, 0x3d, 0x64, 0x3a, 0xb4, 0xbe, 0x93, 0x57, 0x0a, 0xbd,
  0xc4, 0x86, 0x25, 0xbd, 0x86, 0x35, 0xf3, 0x3d, 0x9d, 0x77, 0x49, 0x3e,
  0xbf, 0xcd, 0x9c, 0xbb, 0x41, 0x78, 0xc9, 0x3e, 0x0e, 0x12, 0x93, 0x3c,
  0x11, 0x8f, 0x88, 0x3d, 0xfe, 0x7b, 0x8d, 0x3e, 0x10, 0x04, 0x9b, 0x3c,
  0x13, 0xbf, 0x30, 0x3d, 0x17, 0x9a, 0xe6, 0x3e, 0x60, 0xf6, 0x42, 0x3e,
  0x5d, 0x01, 0x2b, 0x3e, 0x3e, 0x05, 0x5d, 0xbe, 0x36, 0xf7, 0x8d, 0x3c,
  0x02, 0x6e, 0x01, 0xbe, 0x3c, 0xff, 0x95, 0xbe, 0x30, 0x48, 0x90, 0xbe,
  0x3d, 0xfb, 0x5f, 0xbd, 0x21, 0x86, 0x31, 0x3e, 0xe8, 0xd3, 0x71, 0x3d,
  0x89, 0xb7, 0xb4, 0x3b, 0x06, 0x46, 0xb5, 0x3e, 0x77, 0xd3, 0x08, 0x3e,
  0x0d, 0xe0, 0x08, 0xbb, 0x7d, 0xde, 0x65, 0xbe, 0x77, 0xdc, 0x72, 0xbe,
  0x4c, 0x72, 0x0e, 0x3e, 0xd0, 0x33, 0x9d, 0xbe, 0xf3, 0xa4, 0x42, 0xbd,
  0x6b, 0x7b, 0xf9, 0xbc, 0x91, 0x07, 0xd4, 0x3d, 0xd1, 0xc3, 0x95, 0xbe,
  0xdb, 0x30, 0xcd, 0x3d, 0x3b, 0x40, 0x23, 0x3e, 0xd8, 0xd9, 0xc7, 0x3d,
  0xdb, 0x0c, 0x85, 0x3b, 0xb2, 0x31, 0x46, 0xbe, 0x2c, 0x11, 0x12, 0x3e,
  0xea, 0x59, 0x53, 0xbc, 0x3a, 0x74, 0x35, 0x3e, 0xeb, 0xa9, 0x5a, 0x3d,
  0x97, 0x75, 0x66, 0xbe, 0x50, 0x8f, 0xcd, 0x3d, 0x89, 0xbb, 0xd4, 0xbd,
  0x6b, 0x07, 0xd9, 0xbe, 0x93, 0x62, 0x8f, 0xbd, 0x27, 0x20, 0xca, 0x3d,
  0x01, 0xfd, 0x19, 0x3e, 0x16, 0x2a, 0xbd, 0xbc, 0xae, 0x90, 0x2d, 0x3e,
  0x58, 0x03, 0x73, 0x3e, 0x1b, 0x8f, 0xbf, 0x3d, 0x94, 0x0d, 0x98, 0xbd,
  0x36, 0x7c, 0x57, 0x3d, 0x07, 0x9c, 0x87, 0xbd, 0x3e, 0xe9, 0x24, 0xbd,
  0xf8, 0x89, 0xd7, 0xbb, 0x10, 0x33, 0x30, 0xbe, 0x29, 0xd9, 0xc1, 0xbe,
  0x7b, 0xf1, 0xeb, 0x3e, 0xde, 0xd5, 0x92, 0x3e, 0x8f, 0x40, 0xb4, 0x3e,
  0x87, 0xff, 0xdb, 0xbe, 0xc1, 0x23, 0x8e, 0xbc, 0x06, 0x48, 0x58, 0x3d,
  0xbc, 0xb4, 0x31, 0xbd, 0x17, 0xbf, 0xaf, 0xbb, 0x94, 0x9b, 0xe1, 0x3d,
  0x19, 0xe9, 0xf4, 0xbd, 0x86, 0x4a, 0x20, 0xbd, 0xbd, 0x0c, 0x0b, 0x3e,
  0x36, 0x31, 0xef, 0xbd, 0x3a, 0x27, 0x07, 0x3d, 0x73, 0x4f, 0xfb, 0xbd,
  0x5c, 0x88, 0xdf, 0xbc, 0xce, 0x86, 0xda, 0x3c, 0x66, 0x56, 0x2a, 0xbe,
  0x4e, 0xfe, 0x27, 0x3e, 0x45, 0x36, 0xa9, 0xbd, 0x16, 0xe9, 0x2a, 0x3d,
  0x7e, 0x28, 0x41, 0x3c, 0x8d, 0x96, 0x6d, 0x3d, 0x8b, 0x16, 0xc9, 0xbc,
  0xd5, 0x92, 0x0a, 0xbe, 0x5f, 0x40, 0xa6, 0xbd, 0xbb, 0xcb, 0x12, 0x3e,
  0x8e, 0x8d, 0x9a, 0xbd, 0x2b, 0x55, 0xa9, 0xbd, 0x7b, 0xcc, 0x11, 0xbe,
  0x26, 0x3d, 0x40, 0xbd, 0x9e, 0xe0, 0xff, 0xff, 0x10, 0x00, 0x00, 0x00,
  0x07, 0x00, 0x00, 0x00, 0x1c, 0x00, 0x00, 0x00, 0x38, 0x00, 0x00, 0x00,
  0x04, 0x00, 0x00, 0x00, 0x08, 0x00, 0x00, 0x00, 0x04, 0x00, 0x00, 0x00,
  0x03, 0x00, 0x00, 0x00, 0x01, 0x00, 0x00, 0x00, 0x18, 0x00, 0x00, 0x00,
  0x73, 0x65, 0x71, 0x75, 0x65, 0x6e, 0x74, 0x69, 0x61, 0x6c, 0x2f, 0x63,
  0x6f, 0x6e, 0x76, 0x32, 0x64, 0x2f, 0x43, 0x6f, 0x6e, 0x76, 0x32, 0x44,
  0x00, 0x00, 0x00, 0x00, 0x98, 0xe0, 0xff, 0xff, 0x8e, 0xe1, 0xff, 0xff,
  0x04, 0x00, 0x00, 0x00, 0x00, 0x01, 0x00, 0x00, 0xad, 0x0e, 0x83, 0xbd,
  0x98, 0x2e, 0xf1, 0xbc, 0x71, 0x33, 0x34, 0x3e, 0xcc, 0xa0, 0x2c, 0x3e,
  0x28, 0xbf, 0xb9, 0x3d, 0x06, 0x53, 0x81, 0x3e, 0x73, 0xaa, 0xe0, 0x3d,
  0x11, 0x55, 0xe7, 0xbc, 0x12, 0x29, 0x0b, 0xbd, 0x93, 0xe7, 0xdd, 0xbe,
  0xe7, 0x95, 0x9f, 0x3c, 0xe6, 0xad, 0x3a, 0xbe, 0x63, 0xc9, 0x93, 0xbe,
  0x6e, 0xc6, 0x82, 0xbe, 0xd5, 0x70, 0xc1, 0xbe, 0xb6, 0x69, 0x37, 0x3c,
  0x38, 0x61, 0xe9, 0xbd, 0x2d, 0x7a, 0x97, 0x3b, 0x12, 0x63, 0x87, 0x3e,
  0xe2, 0xcc, 0x50, 0x3e, 0x8b, 0x21, 0x3f, 0x3e, 0x78, 0x71, 0xba, 0x3e,
  0xfe, 0x8b, 0x39, 0x3e, 0x9d, 0xea, 0x6c, 0xbd, 0x3d, 0xeb, 0x09, 0x3e,
  0x2f, 0x94, 0x2f, 0x3e, 0x70, 0xc7, 0xe1, 0xbb, 0x34, 0x48, 0x23, 0x3e,
  0xbc, 0x63, 0x61, 0xbe, 0xdd, 0xf4, 0xdd, 0xbd, 0x95, 0x68, 0x65, 0xbe,
  0xf3, 0x5f, 0xba, 0x3d, 0x9c, 0x70, 0x58, 0xbe, 0xef, 0x3e, 0xbe, 0x3d,
  0xb2, 0xa5, 0x84, 0x3e, 0x87, 0xc2, 0x24, 0x3e, 0x7a, 0x96, 0x52, 0x3e,
  0xb3, 0xdb, 0xd3, 0x3e, 0x92, 0x1d, 0xf1, 0x3d, 0x8e, 0xf3, 0xd0, 0xbe,
  0xb3, 0x26, 0x33, 0x3e, 0xa4, 0x7a, 0xad, 0x3e, 0x05, 0x4e, 0xbc, 0x3d,
  0x82, 0x34, 0xc6, 0x3e, 0x9f, 0x8c, 0x92, 0xbe, 0x4b, 0x62, 0x10, 0xbd,
  0x33, 0xeb, 0x18, 0xbe, 0x62, 0x84, 0x2a, 0x3e, 0xc6, 0x8f, 0x98, 0xbe,
  0xad, 0x2f, 0xf4, 0x3d, 0xaa, 0xfd, 0x08, 0x3e, 0x35, 0xe1, 0xab, 0xbd,
  0x4a, 0x49, 0xec, 0x3d, 0xae, 0xee, 0x96, 0x3e, 0x58, 0x49, 0x2c, 0x3e,
  0xe2, 0xda, 0xbc, 0xbd, 0xb6, 0xa2, 0x82, 0x3d, 0x6f, 0xe1, 0x42, 0x3d,
  0x84, 0xf9, 0x03, 0xbd, 0x4f, 0x14, 0x9c, 0x3e, 0x6b, 0x96, 0xb8, 0xbe,
  0xf7, 0xe6, 0x76, 0xbd, 0x2c, 0xe8, 0xc8, 0xbd, 0x7b, 0x41, 0x40, 0x3e,
  0xf6, 0xe1, 0xff, 0xff, 0x10, 0x00, 0x00, 0x00, 0x06, 0x00, 0x00, 0x00,
  0x14, 0x00, 0x00, 0x00, 0x30, 0x00, 0x00, 0x00, 0x02, 0x00, 0x00, 0x00,
  0x04, 0x00, 0x00, 0x00, 0x10, 0x00, 0x00, 0x00, 0x19, 0x00, 0x00, 0x00,
  0x73, 0x65, 0x71, 0x75, 0x65, 0x6e, 0x74, 0x69, 0x61, 0x6c, 0x2f, 0x64,
  0x65, 0x6e, 0x73, 0x65, 0x5f, 0x31, 0x2f, 0x4d, 0x61, 0x74, 0x4d, 0x75,
  0x6c, 0x00, 0x00, 0x00, 0xe8, 0xe1, 0xff, 0xff, 0xde, 0xe2, 0xff, 0xff,
  0x04, 0x00, 0x00, 0x00, 0x00, 0x1c, 0x00, 0x00, 0x3e, 0x52, 0x68, 0x3c,
  0x51, 0x60, 0xf9, 0xbe, 0x14, 0xbe, 0x4d, 0x3c, 0xd2, 0xa8, 0xc3, 0xbd,
  0xf7, 0x67, 0x86, 0xbd, 0x33, 0x87, 0x18, 0x3e, 0xbe, 0x76, 0x0d, 0xbd,
  0xa9, 0xfc, 0x85, 0xbe, 0x9e, 0xf0, 0x6d, 0xbe, 0x96, 0x1f, 0xb6, 0x3e,
  0xe5, 0xcc, 0x1e, 0xbe, 0xa4, 0x34, 0x80, 0x3d, 0x5a, 0xf4, 0xa4, 0xbe,
  0xa1, 0xc6, 0xa7, 0x3c, 0xb7, 0xb1, 0x44, 0x3e, 0xe4, 0xd8, 0xd7, 0xbc,
  0xe3, 0x4e, 0x80, 0xbe, 0x8d, 0x3c, 0x2a, 0xbe, 0x09, 0x84, 0xac, 0x3d,
  0x33, 0x2d, 0xca, 0x3d, 0x7a, 0x67, 0x80, 0x3e, 0xaa, 0x6b, 0xb9, 0x3d,
  0x38, 0x82, 0xcc, 0x3e, 0x6c, 0x88, 0x26, 0xbe, 0x8c, 0x7d, 0x97, 0xbd,
  0x15, 0x5e, 0xbc, 0x3d, 0x04, 0x1f, 0xa8, 0x3d, 0x71, 0x2f, 0xa8, 0xbc,
  0x7d, 0x33, 0xe3, 0xbd, 0x8b, 0x1a, 0x08, 0x3e, 0x33, 0xa7, 0x7b, 0x3e,
  0xb5, 0x4a, 0x90, 0x3e, 0xf8, 0xca, 0xcc, 0xbe, 0xc6, 0xd4, 0x05, 0x3e,
  0x4e, 0x1a, 0xa7, 0x3e, 0xed, 0x7d, 0x92, 0xbe, 0xa9, 0xd0, 0x3c, 0x3e,
  0x0f, 0xc5, 0xee, 0x3d, 0xd4, 0x91, 0xec, 0x3e, 0x9f, 0xec, 0xc7, 0x3e,
  0x34, 0xbe, 0xe7, 0xbd, 0x23, 0xd7, 0xdd, 0xbc, 0xaa, 0x5a, 0xf8, 0x3e,
  0x5e, 0x89, 0x5f, 0x3e, 0x3d, 0x6e, 0x89, 0x3d, 0xda, 0x34, 0xc7, 0x3d,
  0xfd, 0x31, 0x63, 0x3f, 0x5f, 0x49, 0x8b, 0x3d, 0x7b, 0x31, 0xb0, 0xbe,
  0x73, 0x49, 0x18, 0xbe, 0x99, 0x50, 0xf3, 0x3e, 0xce, 0xe9, 0x29, 0xbd,
  0x4a, 0x47, 0xfd, 0xbd, 0xb7, 0x62, 0xc9, 0x3e, 0x96, 0xcd, 0xe9, 0x3e,
  0x83, 0x30, 0x36, 0x3e, 0xa0, 0x0a, 0x3f, 0xbe, 0x55, 0x9c, 0x81, 0x3d,
  0xa4, 0x8f, 0x8c, 0x3e, 0xbe, 0xf6, 0x19, 0x3e, 0x94, 0x94, 0x1b, 0xbd,
  0x56, 0x5a, 0xa7, 0x3d, 0xed, 0x59, 0xb6, 0x3f, 0x66, 0x0f, 0xed, 0x3d,
  0x2f, 0xb3, 0x8b, 0x3c, 0x76, 0xf3, 0xae, 0xbe, 0xaf, 0x9a, 0x72, 0x3e,
  0x6b, 0x2a, 0x60, 0x3c, 0xff, 0xdb, 0x98, 0xbe, 0x66, 0x59, 0x09, 0x3f,
  0x42, 0xdf, 0x87, 0x3e, 0x40, 0x06, 0x9d, 0xbe, 0x8e, 0x83, 0x00, 0xbd,
  0x3e, 0x7e, 0x27, 0x3d, 0x34, 0x54, 0xe4, 0x3c, 0x3e, 0xd1, 0x3b, 0x3e,
  0xf3, 0xd7, 0x97, 0xbe, 0xa9, 0x01, 0xf0, 0xbd, 0x41, 0x22, 0x94, 0x3f,
  0x8d, 0x2f, 0xcd, 0xbb, 0xdf, 0x21, 0x87, 0xbe, 0x1c, 0xf5, 0x23, 0xbe,
  0x24, 0xa3, 0x1c, 0x3e, 0x5e, 0x71, 0x1c, 0xbe, 0xb7, 0x2b, 0x04, 0x3e,
  0x05, 0x8c, 0x02, 0x3f, 0xdb, 0x2b, 0x01, 0x3e, 0x9b, 0x8f, 0xdf, 0xbc,
  0xe5, 0x15, 0x23, 0xbe, 0xbb, 0x1a, 0x42, 0x3e, 0x45, 0xda, 0x38, 0xbd,
  0xca, 0xee, 0x82, 0x3e, 0x28, 0x36, 0x7c, 0xbe, 0xf4, 0xe3, 0x89, 0x3d,
  0x82, 0xbf, 0xc2, 0x3d, 0x2b, 0x55, 0xe4, 0x3c, 0x9c, 0xe8, 0x3b, 0xbe,
  0x43, 0x7e, 0xa6, 0xbe, 0xc2, 0x01, 0x92, 0x3d, 0x60, 0xfa, 0x0b, 0xbe,
  0xba, 0x84, 0x2a, 0xbd, 0x81, 0xba, 0x8d, 0xbe, 0x51, 0x16, 0xe4, 0x3c,
  0x35, 0xaf, 0xe2, 0xbd, 0xdd, 0x5f, 0x2a, 0xbe, 0xdd, 0x45, 0x06, 0x3e,
  0xa3, 0xac, 0x3f, 0xbe, 0x2c, 0x2c, 0x2a, 0xbd, 0x3c, 0x98, 0x85, 0xbe,
  0xe2, 0xc0, 0x3a, 0x3e, 0xa5, 0x42, 0x95, 0x3d, 0xf9, 0x26, 0xaa, 0xbe,
  0xe4, 0x07, 0xbe, 0xbe, 0x04, 0xb4, 0xae, 0xba, 0x02, 0xba, 0x77, 0xbe,
  0x47, 0x88, 0x95, 0x3e, 0x48, 0x3c, 0xeb, 0xbe, 0xbf, 0xcf, 0xec, 0xbe,
  0xed, 0x36, 0x2a, 0xbe, 0x53, 0x18, 0x58, 0xbd, 0xf9, 0xf8, 0x4c, 0x3d,
  0x9a, 0x23, 0x5b, 0xbe, 0x9c, 0x19, 0x23, 0xbe, 0x72, 0x10, 0xe6, 0x3d,
  0x4b, 0x35, 0x09, 0xbf, 0x15, 0xe6, 0xe9, 0xbd, 0x62, 0x73, 0xc2, 0xbd,
  0xcc, 0x2c, 0xc8, 0xbe, 0x19, 0xea, 0xfd, 0xbc, 0x94, 0x89, 0x91, 0xbe,
  0x0a, 0x85, 0x8e, 0x3d, 0x16, 0x16, 0xb1, 0x3e, 0xeb, 0xf6, 0xcb, 0x3d,
  0xd3, 0x2d, 0x72, 0xbe, 0x7c, 0x4f, 0x1f, 0xbe, 0x50, 0x8c, 0x49, 0x3d,
  0x9a, 0x57, 0xd3, 0x3a, 0x5f, 0x1d, 0xe3, 0xbd, 0x80, 0x9e, 0x04, 0xbe,
  0xf9, 0x1f, 0x02, 0x3e, 0xef, 0x71, 0x94, 0xbe, 0xfa, 0x95, 0xe2, 0xbc,
  0x35, 0x92, 0x04, 0x3c, 0xe1, 0xc8, 0x9d, 0xbe, 0x88, 0x82, 0xa7, 0x3d,
  0x60, 0x6d, 0xf6, 0xbc, 0xa3, 0xb6, 0x93, 0xbd, 0x29, 0x14, 0x6a, 0x3e,
  0x06, 0x4f, 0xab, 0x3e, 0x0b, 0xf2, 0x58, 0x3d, 0x36, 0xef, 0xbe, 0xbd,
  0x24, 0xc2, 0x24, 0x3e, 0xdd, 0x31, 0x32, 0x3e, 0x1f, 0x0e, 0x89, 0xbc,
  0x92, 0x71, 0xa4, 0xbe, 0x67, 0xf4, 0x22, 0x3e, 0xe1, 0x3e, 0xae, 0x3d,
  0x10, 0x97, 0x2a, 0x3e, 0xa2, 0xaf, 0x3d, 0xbe, 0x63, 0x65, 0x3b, 0xbe,
  0xcc, 0x55, 0x21, 0xbe, 0x18, 0x79, 0xb6, 0xbd, 0x77, 0xa9, 0x93, 0xbd,
  0x2e, 0xac, 0x2a, 0x3e, 0xc5, 0xe0, 0xe9, 0xbc, 0x97, 0x46, 0xba, 0xbd,
  0x3f, 0x29, 0x2c, 0xbd, 0x35, 0x2d, 0xee, 0x3e, 0xee, 0x7b, 0x11, 0xbe,
  0x6d, 0x91, 0x3a, 0xbe, 0xd8, 0xcf, 0x22, 0xbd, 0x11, 0xcb, 0x5e, 0x3d,
  0x96, 0x8e, 0xfe, 0x3c, 0xf2, 0xc2, 0xaa, 0x3e, 0x49, 0xf3, 0x56, 0xbe,
  0xfe, 0x0f, 0x30, 0xbe, 0x66, 0x72, 0x09, 0xbe, 0x7c, 0xee, 0xa3, 0xbe,
  0x51, 0x9d, 0x54, 0x3d, 0x0f, 0x16, 0x34, 0x3e, 0x74, 0x37, 0x1a, 0xbe,
  0x14, 0x36, 0x03, 0x3e, 0x0d, 0x35, 0x1a, 0xbe, 0xf8, 0x7a, 0x0b, 0x3e,
  0x4b, 0xd0, 0x64, 0xbd, 0xb5, 0x68, 0x91, 0xbd, 0x7f, 0x71, 0xdd, 0xbd,
  0x70, 0xbc, 0x51, 0xbd, 0xdf, 0xd2, 0x9f, 0x3d, 0xc3, 0xbd, 0xdb, 0x3d,
  0x85, 0x60, 0x2f, 0xbe, 0x36, 0x04, 0xcd, 0xbd, 0xc7, 0xf3, 0x25, 0xbd,
  0x3f, 0x64, 0x04, 0xbe, 0x98, 0xcf, 0xd2, 0xbd, 0x97, 0xee, 0x3e, 0x3e,
  0xb0, 0x46, 0x6d, 0xbe, 0xf0, 0xa0, 0xb6, 0x3d, 0xab, 0x45, 0x70, 0xbe,
  0xa1, 0x6a, 0x06, 0xbe, 0xb1, 0x1b, 0x7b, 0x3d, 0x51, 0xd8, 0x0f, 0xbe,
  0x0b, 0x2f, 0xcd, 0xbd, 0x0e, 0x83, 0xb9, 0xbd, 0xd7, 0x44, 0xa1, 0xbd,
  0xa0, 0x93, 0x04, 0x3e, 0x44, 0x98, 0x8b, 0x3d, 0x36, 0xf4, 0x6e, 0xbe,
  0xe6, 0xc7, 0x31, 0x3d, 0xc9, 0x14, 0xd1, 0xbd, 0xa8, 0xc1, 0x1f, 0xbe,
  0x85, 0x12, 0x27, 0x3e, 0x18, 0xe1, 0x93, 0xbe, 0x9f, 0x62, 0x14, 0xbd,
  0x4b, 0xcb, 0x89, 0xbd, 0xd0, 0xcc, 0x07, 0x3e, 0xd0, 0x17, 0xeb, 0x3d,
  0x83, 0xfc, 0xd4, 0xbd, 0x3f, 0x6b, 0xf6, 0x3d, 0x37, 0xb7, 0xc7, 0x3d,
  0xcb, 0xba, 0x9b, 0xbe, 0xd3, 0xef, 0x98, 0x3d, 0x63, 0x6f, 0xb7, 0x3e,
  0x2f, 0x04, 0x9e, 0x3d, 0xd2, 0x5b, 0xda, 0xbe, 0x65, 0xd8, 0x50, 0xbd,
  0xa3, 0xaa, 0x77, 0xbe, 0x10, 0x94, 0x4d, 0xbf, 0xfa, 0xc4, 0x9e, 0xbe,
  0x43, 0xaa, 0xa7, 0xbe, 0x38, 0xb9, 0x3e, 0xbd, 0x30, 0x24, 0x62, 0xbe,
  0xb8, 0x00, 0x05, 0xbe, 0xb3, 0xe2, 0x6e, 0xbe, 0x94, 0xa1, 0x4c, 0xbe,
  0x53, 0xe2, 0xe3, 0xbd, 0x5f, 0x54, 0xf1, 0xbd, 0x59, 0x63, 0x45, 0xbe,
  0x51, 0x03, 0xc6, 0xbd, 0xc7, 0x8d, 0x77, 0xbe, 0xe8, 0x55, 0xd1, 0xbe,
  0x8b, 0x3c, 0xc4, 0x3b, 0xf9, 0x7d, 0x6c, 0xbe, 0x60, 0x9d, 0x6a, 0xbe,
  0x63, 0x0b, 0xff, 0xbd, 0x57, 0xa5, 0x26, 0xbe, 0xa8, 0x5a, 0x6c, 0xbe,
  0xd2, 0xbe, 0xff, 0xbd, 0xf1, 0x36, 0xd6, 0xbc, 0x62, 0x7c, 0x09, 0xbe,
  0x94, 0x70, 0x8b, 0xbe, 0xbd, 0x77, 0xc4, 0xbe, 0x62, 0xf6, 0xfb, 0xbd,
  0x8e, 0x0e, 0x14, 0xbe, 0x74, 0x1e, 0x3b, 0x3e, 0x93, 0x4c, 0x3f, 0xbe,
  0xca, 0x97, 0x37, 0xbe, 0x86, 0xbf, 0xd6, 0xbc, 0x87, 0xd8, 0x56, 0xbe,
  0x0f, 0xc4, 0x77, 0xbe, 0x59, 0x72, 0xca, 0xbe, 0x99, 0x62, 0x6e, 0xbe,
  0x68, 0x3a, 0x30, 0xbf, 0x41, 0x0d, 0x32, 0xbe, 0x54, 0xb8, 0xb2, 0xbc,
  0xb9, 0x91, 0x44, 0xbe, 0x12, 0xdb, 0x12, 0x3c, 0xe4, 0xbe, 0xc6, 0xbe,
  0x4a, 0x53, 0x24, 0xba, 0x43, 0xd4, 0x21, 0xbc, 0x4f, 0x13, 0x46, 0xbe,
  0x04, 0x37, 0xbf, 0xbd, 0x0f, 0x95, 0x8a, 0xbe, 0xeb, 0x91, 0x1e, 0xbd,
  0x76, 0xfb, 0xb8, 0xbe, 0x47, 0xf4, 0xc1, 0xbe, 0xd1, 0x61, 0x02, 0xbd,
  0x74, 0xf6, 0x79, 0xbe, 0x0a, 0xdf, 0x3b, 0xbf, 0xac, 0x90, 0xd2, 0x3d,
  0xb2, 0x3a, 0x1b, 0xbd, 0x64, 0xd9, 0xa2, 0x3d, 0x3d, 0xac, 0xad, 0xbe,
  0x8f, 0x91, 0x49, 0xbe, 0x49, 0xf5, 0x9d, 0xbe, 0xca, 0xb4, 0x64, 0x3c,
  0xac, 0x9a, 0x1d, 0xbd, 0x60, 0xd1, 0x86, 0xbe, 0xc4, 0x15, 0x41, 0x3d,
  0xd8, 0x3c, 0x4f, 0xbd, 0x73, 0xb7, 0x03, 0xbe, 0x16, 0x13, 0x41, 0xbe,
  0xd9, 0x01, 0x4a, 0x3e, 0xb6, 0xb0, 0x02, 0xbf, 0x04, 0xb8, 0xaf, 0xba,
  0xc3, 0x4c, 0x56, 0x3e, 0x2f, 0x72, 0x33, 0xbc, 0x55, 0x9c, 0xbf, 0xbd,
  0x65, 0x18, 0x81, 0x3e, 0x6d, 0x38, 0x25, 0xbe, 0x85, 0x9c, 0x03, 0xbd,
  0x05, 0x4a, 0x3c, 0x3e, 0xdd, 0xce, 0x61, 0xbd, 0x8e, 0xfb, 0x91, 0x3e,
  0x19, 0xdd, 0x50, 0x3c, 0xd6, 0x8f, 0x1c, 0x3d, 0x20, 0x97, 0xdd, 0x3a,
  0x37, 0xde, 0x03, 0x3e, 0x82, 0x0c, 0xf3, 0x3d, 0xb6, 0x8a, 0x87, 0xbe,
  0x76, 0x18, 0x95, 0x3b, 0xbe, 0xcb, 0xd3, 0x3d, 0x62, 0xcd, 0x1e, 0x3d,
  0x85, 0x9d, 0x12, 0xbe, 0xea, 0xe2, 0xff, 0x3d, 0x7e, 0x98, 0x83, 0xbe,
  0x40, 0x34, 0x9e, 0x3d, 0x18, 0x39, 0x2f, 0x3c, 0xa0, 0x8c, 0x1a, 0x3e,
  0xc1, 0x11, 0x94, 0x3d, 0x4f, 0xc8, 0x92, 0x3d, 0xc2, 0xd5, 0x2d, 0x3d,
  0xc8, 0xc9, 0x67, 0x3d, 0x1d, 0xe6, 0xaa, 0xbc, 0x8c, 0x53, 0x7a, 0x3e,
  0x8a, 0x00, 0xd2, 0x3b, 0x1a, 0x2a, 0xd6, 0x3c, 0x8e, 0xea, 0x17, 0x3e,
  0xf2, 0x58, 0xf1, 0x3b, 0xd9, 0x7c, 0x91, 0xbc, 0x19, 0x02, 0x0b, 0x3c,
  0x86, 0x42, 0x2e, 0xbe, 0x36, 0x30, 0x21, 0x3d, 0xaf, 0x09, 0x90, 0x3d,
  0x5f, 0x5c, 0x33, 0xbe, 0x39, 0x6c, 0x9f, 0x3c, 0x0e, 0x73, 0x2e, 0xbe,
  0x38, 0xb5, 0xf3, 0xbc, 0x65, 0x05, 0x7f, 0xbe, 0x02, 0x0e, 0x19, 0x3d,
  0xcc, 0xa2, 0x2c, 0x3e, 0x04, 0x8a, 0xcf, 0xbd, 0xf2, 0xbf, 0x9f, 0xbd,
  0x41, 0x59, 0x04, 0x3e, 0x00, 0x98, 0x95, 0xbe, 0xf3, 0x05, 0x7b, 0xbd,
  0xeb, 0x7d, 0x05, 0xbe, 0xc9, 0x44, 0x3f, 0xbe, 0x14, 0xf6, 0xcb, 0xbc,
  0x8b, 0x63, 0x66, 0xbd, 0xbd, 0x86, 0x90, 0xbd, 0xff, 0x4b, 0xc3, 0xbc,
  0xef, 0xb2, 0x65, 0xbe, 0xc1, 0x28, 0x3c, 0xbd, 0xa8, 0xae, 0xcd, 0x3d,
  0x0b, 0xdf, 0x08, 0xbe, 0x25, 0xa4, 0x60, 0xba, 0x69, 0x1f, 0x36, 0xbe,
  0x25, 0xec, 0xe5, 0xbc, 0xc1, 0xa7, 0x54, 0xbd, 0xdc, 0x84, 0xd2, 0xbe,
  0xc4, 0x51, 0xdb, 0xbb, 0xcf, 0xcc, 0x2a, 0x3e, 0x46, 0x82, 0x6f, 0xbe,
  0xe6, 0x0a, 0xf7, 0xbd, 0xf4, 0x4a, 0x7e, 0x3c, 0x95, 0x41, 0x4b, 0x3e,
  0x0c, 0x0b, 0x00, 0x3e, 0xc9, 0xc5, 0x80, 0xbe, 0x00, 0x61, 0x9a, 0xbd,
  0x3a, 0x20, 0x4b, 0xbe, 0x1b, 0x3f, 0xc3, 0xbc, 0x98, 0x68, 0x17, 0x3c,
  0x91, 0x12, 0x12, 0x3e, 0x86, 0x07, 0xfb, 0x3c, 0x6c, 0xcf, 0x59, 0x3c,
  0x15, 0x96, 0x88, 0xbe, 0x8e, 0x6f, 0x37, 0xbe, 0x43, 0xf1, 0x05, 0xbe,
  0xaf, 0xc7, 0xa6, 0xbe, 0xc4, 0x69, 0x70, 0x3d, 0x9b, 0x31, 0x25, 0xbd,
  0x2e, 0xeb, 0x5c, 0xbe, 0x94, 0x08, 0x38, 0x3d, 0x61, 0xcb, 0x8c, 0xbd,
  0x97, 0xb9, 0x29, 0xbd, 0xb0, 0x5d, 0x25, 0xbe, 0xc7, 0xf7, 0x07, 0xbe,
  0x0b, 0x8e, 0xff, 0x3d, 0x1b, 0x13, 0x9d, 0x3d, 0xea, 0x60, 0xc7, 0xbd,
  0xf6, 0xa4, 0x8d, 0xbc, 0xed, 0x7b, 0xdb, 0xbe, 0x51, 0x8d, 0x2c, 0x3e,
  0x94, 0xbc, 0xbb, 0xbd, 0x1b, 0x51, 0x75, 0xbe, 0xde, 0x78, 0x0f, 0xbd,
  0xc6, 0x53, 0xb4, 0x3d, 0x25, 0xd8, 0x58, 0xbe, 0x44, 0x33, 0x49, 0x3e,
  0xdb, 0x2e, 0x12, 0xbe, 0x2f, 0x72, 0x0c, 0x3c, 0x99, 0xeb, 0x13, 0xbd,
  0xe7, 0xec, 0xef, 0x3d, 0x96, 0x9a, 0x7a, 0x3e, 0x71, 0x95, 0xda, 0xbd,
  0x93, 0x14, 0x30, 0x3d, 0xaf, 0xab, 0x90, 0x3e, 0xe1, 0xe9, 0xb9, 0xbe,
  0xb4, 0x21, 0x30, 0xbe, 0x03, 0x56, 0xe5, 0x3d, 0x51, 0x2c, 0x87, 0x3a,
  0x9c, 0xed, 0x4b, 0xbd, 0x75, 0x8c, 0xde, 0x3d, 0xeb, 0xdd, 0xf6, 0xbd,
  0x4c, 0x67, 0x08, 0x39, 0xae, 0x72, 0x5f, 0xbe, 0x0b, 0x79, 0x4a, 0xbc,
  0xfb, 0xe4, 0x4e, 0xbd, 0x39, 0xd5, 0xd3, 0xbc, 0x83, 0xb6, 0x96, 0x3d,
  0xe8, 0x97, 0xa1, 0xbe, 0x75, 0xdd, 0x9e, 0x3d, 0x17, 0x30, 0xbd, 0x3e,
  0xce, 0xa8, 0x97, 0xbd, 0xc5, 0x8a, 0x09, 0x3e, 0xc9, 0xa6, 0x30, 0x3e,
  0x55, 0x61, 0x15, 0xbe, 0xd4, 0x5f, 0x4e, 0x3d, 0x15, 0xa2, 0x0f, 0xbe,
  0xf9, 0xa9, 0x1c, 0x3e, 0x7e, 0x9b, 0xad, 0x3c, 0xf5, 0x1d, 0x64, 0xbd,
  0x97, 0xda, 0xa9, 0xbd, 0x85, 0xd8, 0x81, 0x3d, 0xcb, 0x96, 0x25, 0xbc,
  0x02, 0x58, 0x03, 0x3e, 0x0a, 0x0f, 0x48, 0xbd, 0x97, 0x73, 0xa2, 0x3d,
  0x90, 0x4d, 0xa7, 0x3e, 0x61, 0x88, 0xb0, 0xbd, 0x6d, 0xa7, 0x05, 0xbb,
  0x29, 0x6c, 0x31, 0x3d, 0xb1, 0x3b, 0x36, 0xbe, 0x04, 0x9d, 0x98, 0x3c,
  0x7c, 0x30, 0x98, 0x3c, 0x7d, 0x37, 0x7f, 0xbe, 0xf2, 0xc8, 0xae, 0x3d,
  0xe6, 0xd1, 0x06, 0x3e, 0x46, 0x54, 0x62, 0x3d, 0x3d, 0x47, 0xd0, 0x3b,
  0xd7, 0xfc, 0x3e, 0xbe, 0xea, 0x7a, 0x42, 0x3e, 0x58, 0x59, 0x86, 0xbd,
  0xba, 0xb8, 0xba, 0x3c, 0xb8, 0x32, 0x68, 0x3d, 0x9c, 0xb2, 0xf1, 0x3d,
  0xfe, 0x61, 0x7e, 0xbd, 0x8b, 0xd7, 0x43, 0x3d, 0xa1, 0xba, 0x6f, 0xbe,
  0x8c, 0x25, 0x34, 0x3e, 0xc2, 0xa9, 0x5a, 0x3e, 0xa6, 0x4a, 0x83, 0xbe,
  0x55, 0x6d, 0x75, 0x3e, 0xcc, 0x99, 0x68, 0xbd, 0x5c, 0xed, 0x10, 0xbc,
  0x23, 0xd3, 0xac, 0x3c, 0x3a, 0x23, 0x2d, 0xbd, 0xf0, 0xe9, 0x4e, 0x3d,
  0x09, 0x32, 0x89, 0x3c, 0x05, 0x2b, 0xc3, 0xbe, 0x37, 0x98, 0xa1, 0x3c,
  0x40, 0x62, 0xbe, 0xbb, 0x50, 0x5a, 0x1c, 0x3d, 0xc9, 0x83, 0xb2, 0xbe,
  0x34, 0xa9, 0x07, 0xbe, 0x0f, 0xb4, 0xdb, 0xbc, 0x69, 0x2d, 0x0e, 0x3d,
  0x37, 0xcd, 0x40, 0xbe, 0x2a, 0x3b, 0x0e, 0x3e, 0x22, 0xf3, 0x49, 0xbd,
  0xb4, 0x66, 0xb4, 0xbd, 0x5e, 0x27, 0x96, 0xbe, 0x33, 0x8e, 0x8a, 0x3d,
  0x10, 0x74, 0xf0, 0xbd, 0xcb, 0xf7, 0x59, 0x3d, 0x23, 0x04, 0x8c, 0xbe,
  0xf4, 0x21, 0x62, 0x3d, 0xed, 0x04, 0x33, 0xbd, 0x9d, 0x70, 0x10, 0xbe,
  0xa4, 0xc0, 0x73, 0xbe, 0xaa, 0x6e, 0x70, 0x3d, 0xd8, 0xd9, 0xfd, 0xbe,
  0x57, 0x23, 0x8d, 0xbd, 0x59, 0x45, 0x28, 0xbb, 0xfe, 0x83, 0x6a, 0xbe,
  0xa9, 0x3c, 0x4c, 0xbb, 0x4a, 0x5e, 0x44, 0xbd, 0x37, 0xbd, 0x60, 0xbe,
  0xc8, 0x1e, 0x3b, 0x3d, 0x64, 0x78, 0x03, 0x3e, 0xeb, 0x1a, 0x15, 0xbf,
  0x33, 0x92, 0x3c, 0xbe, 0x05, 0x5c, 0x33, 0xbc, 0xee, 0xf0, 0x7b, 0xbd,
  0x1b, 0xde, 0xaf, 0xbe, 0xbd, 0x55, 0xd0, 0x3d, 0x01, 0x47, 0x7f, 0x3d,
  0xc1, 0x85, 0x41, 0xbf, 0x5f, 0x06, 0x8f, 0xbd, 0x1c, 0xd4, 0x05, 0x3d,
  0xc2, 0x90, 0x82, 0xbd, 0x10, 0x1f, 0x6b, 0xbb, 0xec, 0x86, 0x09, 0xbd,
  0x98, 0xb5, 0x00, 0x3d, 0x97, 0x5c, 0xd4, 0xb9, 0x7c, 0x2a, 0x9b, 0xbd,
  0xdf, 0x5e, 0xad, 0xbe, 0x84, 0x6b, 0x67, 0xbd, 0x4e, 0x19, 0x16, 0xbc,
  0x93, 0x4f, 0x71, 0xbc, 0xba, 0xe5, 0x3e, 0xbe, 0xa2, 0xe0, 0x9d, 0x3b,
  0x5b, 0xa5, 0xf3, 0x3c, 0xd9, 0xe9, 0xd4, 0xbe, 0xf8, 0xbd, 0xb0, 0xbd,
  0xac, 0x43, 0xd8, 0x3b, 0x21, 0xc2, 0x1d, 0x3b, 0x36, 0xc6, 0x0d, 0xbe,
  0x9c, 0x6d, 0xbc, 0xbd, 0x63, 0xf3, 0xfe, 0xbd, 0xf4, 0xf1, 0x0f, 0x3d,
  0x32, 0x8e, 0xb4, 0xbd, 0xf0, 0x4a, 0x7e, 0xbc, 0x8c, 0x0a, 0x5a, 0xbd,
  0xde, 0x9a, 0xa1, 0x3d, 0xbc, 0x85, 0xc2, 0x3a, 0x16, 0x52, 0xf5, 0xbd,
  0xde, 0x3b, 0x57, 0xbd, 0xe4, 0x83, 0x73, 0x3d, 0xe9, 0x9f, 0xca, 0xbe,
  0x0c, 0xa8, 0x61, 0xbe, 0x5d, 0xb2, 0xa6, 0x3c, 0xef, 0x3e, 0x56, 0xbe,
  0x7f, 0x64, 0x0d, 0xbd, 0x21, 0x57, 0xbf, 0xbd, 0x8e, 0x57, 0x2d, 0xbc,
  0xc7, 0x9f, 0x91, 0x3c, 0xee, 0x2d, 0x85, 0xbd, 0xd4, 0x7b, 0x1c, 0xbd,
  0x1b, 0xea, 0x7f, 0xbd, 0xe0, 0xde, 0xf9, 0xbd, 0xaf, 0x6b, 0x0b, 0xbd,
  0xdc, 0x90, 0xb0, 0xba, 0xc9, 0xb7, 0x95, 0x3d, 0xfc, 0x77, 0x92, 0xbb,
  0x99, 0x7f, 0x68, 0xbe, 0x87, 0x03, 0xa8, 0xbe, 0x43, 0xd2, 0x04, 0xbd,
  0x2c, 0x9b, 0xae, 0xbe, 0xc6, 0x5f, 0x94, 0x3c, 0x18, 0xe3, 0x01, 0xbf,
  0x16, 0x29, 0xef, 0xbc, 0x88, 0x2b, 0x89, 0x3c, 0x41, 0xe0, 0xaf, 0xbe,
  0x52, 0x85, 0x31, 0xbe, 0xca, 0x6a, 0xfc, 0xbd, 0x63, 0xa7, 0x17, 0xbe,
  0x86, 0xd2, 0xd6, 0x3b, 0xbe, 0x59, 0xea, 0xbd, 0x36, 0xd4, 0xa4, 0x3b,
  0x66, 0x52, 0x75, 0x3d, 0xec, 0xa6, 0x84, 0xbe, 0x40, 0xdd, 0x7a, 0xbe,
  0xc1, 0xb3, 0x1c, 0xbc, 0xc8, 0xc6, 0x7a, 0xbe, 0xea, 0xde, 0x8c, 0xbc,
  0xe3, 0x9e, 0x3a, 0xbf, 0x2b, 0x48, 0x28, 0xbe, 0x14, 0x88, 0x07, 0xbd,
  0x25, 0x0b, 0xc9, 0xbe, 0x62, 0x0f, 0x28, 0xbe, 0x49, 0xcc, 0x44, 0xbd,
  0x06, 0x6b, 0xbd, 0xbe, 0x49, 0x8b, 0xc9, 0xb8, 0x91, 0x66, 0xa3, 0xbd,
  0x1b, 0xfd, 0x35, 0x3c, 0x4c, 0x6e, 0x9a, 0xbd, 0xb2, 0x71, 0xfc, 0x3d,
  0x71, 0x3a, 0xcd, 0xbd, 0x4f, 0x50, 0xcd, 0xbb, 0x29, 0x80, 0x74, 0xbd,
  0xcc, 0x2d, 0xbf, 0xbd, 0x12, 0xa5, 0x1a, 0xbf, 0x08, 0x9a, 0xac, 0xbd,
  0x07, 0xc9, 0x81, 0xbe, 0x2e, 0x3d, 0x3b, 0xbe, 0x46, 0xcc, 0x2b, 0x3d,
  0x43, 0xc7, 0x98, 0xbe, 0x74, 0x94, 0x7b, 0xbe, 0xea, 0xf6, 0x00, 0x3b,
  0x13, 0x4b, 0x32, 0xbb, 0x7e, 0xd4, 0xcb, 0xbd, 0x57, 0xd7, 0xe9, 0x3b,
  0x6a, 0x40, 0xcc, 0x3c, 0x47, 0xf2, 0x95, 0xbe, 0x12, 0xce, 0x14, 0x3e,
  0xc5, 0xd1, 0x71, 0x3c, 0x75, 0x15, 0xa4, 0xbd, 0xf4, 0x44, 0x48, 0xbf,
  0x31, 0x80, 0xf2, 0xbc, 0xd3, 0x2d, 0xa2, 0xbc, 0xc1, 0x09, 0x9e, 0xbe,
  0x56, 0x9a, 0x6d, 0xbe, 0x18, 0xb5, 0x33, 0xbe, 0x08, 0x68, 0x49, 0xbd,
  0x56, 0xbb, 0xa0, 0xbc, 0xf9, 0x1a, 0x92, 0xbc, 0x4b, 0xee, 0x17, 0xbe,
  0x97, 0x4a, 0xc8, 0xbd, 0xe8, 0x6e, 0x55, 0xbe, 0xf6, 0xd6, 0x7e, 0xbe,
  0x8d, 0xbf, 0x44, 0x3e, 0x20, 0x1e, 0x8b, 0xbe, 0x44, 0x48, 0xcd, 0xbd,
  0x7c, 0x56, 0x90, 0xbe, 0xb6, 0x81, 0x20, 0xbe, 0x78, 0xd8, 0x71, 0x3d,
  0xe4, 0x9b, 0xe0, 0x3d, 0xb0, 0x1e, 0x89, 0xbe, 0x98, 0x14, 0x34, 0xbe,
  0x40, 0xf8, 0xdf, 0xbe, 0xbe, 0x6a, 0xa4, 0xbc, 0x75, 0x7b, 0x12, 0xbe,
  0xf1, 0x1d, 0x5d, 0xbd, 0x17, 0x38, 0x0b, 0xbe, 0x7e, 0x94, 0x58, 0xbd,
  0xc8, 0x40, 0xb4, 0x3d, 0x7a, 0x56, 0x5a, 0xbe, 0xda, 0x7c, 0x6e, 0x3e,
  0x9f, 0x6b, 0x47, 0x3e, 0x51, 0x32, 0xc3, 0x3d, 0x09, 0x8b, 0x8c, 0xbe,
  0x5c, 0xb4, 0x33, 0xbe, 0x9d, 0xca, 0x00, 0x3e, 0xaa, 0x42, 0x8a, 0xbd,
  0xdc, 0x98, 0x0e, 0xbe, 0xec, 0x5e, 0xc0, 0xbe, 0xcb, 0x8c, 0xbd, 0xbc,
  0xee, 0x37, 0x4f, 0xbd, 0xd8, 0x5c, 0xb4, 0xbe, 0xcf, 0xc5, 0xb8, 0xbd,
  0xb0, 0xc2, 0xca, 0x3d, 0x52, 0xeb, 0x5a, 0x3e, 0xed, 0x0c, 0x86, 0xbe,
  0x4a, 0x9d, 0x99, 0x3e, 0x0b, 0xe7, 0xcc, 0xbc, 0x9c, 0xd3, 0xd5, 0xbc,
  0x02, 0x8d, 0xd0, 0xbe, 0x81, 0x56, 0x71, 0xbd, 0x1b, 0x6b, 0xda, 0x3d,
  0xe8, 0xd3, 0x4b, 0xbd, 0x80, 0x0e, 0x12, 0xbe, 0xf8, 0x69, 0x92, 0xbe,
  0xe1, 0xbc, 0x74, 0xbd, 0x1e, 0x94, 0xc9, 0xbd, 0xb0, 0x96, 0xa0, 0xbe,
  0x64, 0xe9, 0xd0, 0xbb, 0x5e, 0xa0, 0x3b, 0x3e, 0xaf, 0xee, 0x76, 0x3e,
  0xab, 0x5b, 0x90, 0xbe, 0x25, 0xc7, 0xf2, 0x3d, 0x76, 0x79, 0xc3, 0xbd,
  0xe9, 0xb5, 0xe5, 0x3d, 0x84, 0xcb, 0x51, 0xbc, 0x1d, 0x54, 0xc8, 0x3e,
  0x81, 0x99, 0xa7, 0xbd, 0x9c, 0xa4, 0xfc, 0xbd, 0xaf, 0xf3, 0xee, 0x3d,
  0x08, 0x6d, 0x4d, 0x3e, 0x86, 0x5b, 0x6b, 0xbd, 0xee, 0x0c, 0xd4, 0xbd,
  0xca, 0x7a, 0x18, 0x3e, 0x89, 0x82, 0x2c, 0xbf, 0xf1, 0x83, 0xe4, 0xbc,
  0xd2, 0xa1, 0xb9, 0xbd, 0x13, 0x0a, 0xb0, 0x3e, 0x99, 0xe2, 0xc0, 0xbd,
  0x77, 0x61, 0xc7, 0xbd, 0x31, 0xe2, 0xb1, 0x3d, 0xe1, 0x7c, 0x00, 0x3e,
  0x9d, 0xe0, 0x01, 0x3e, 0x23, 0x44, 0x00, 0x3e, 0xa9, 0x6f, 0x59, 0xbe,
  0x91, 0xd7, 0xb0, 0xbe, 0x49, 0x8e, 0xad, 0x3d, 0xd9, 0x04, 0x04, 0xbc,
  0x52, 0x01, 0x0d, 0xbe, 0x59, 0xff, 0x36, 0x3e, 0x5c, 0xa3, 0xd9, 0xbd,
  0x3b, 0xa4, 0x0f, 0x3d, 0x2e, 0x7d, 0x1c, 0xbd, 0x22, 0x2a, 0x16, 0x3e,
  0x1d, 0xcc, 0xd8, 0x3d, 0x8e, 0xd6, 0xfa, 0x3d, 0x69, 0x98, 0x5d, 0x3d,
  0xb5, 0xd9, 0x4c, 0xbe, 0xb1, 0x16, 0xd1, 0x3d, 0x51, 0x9d, 0xe3, 0x3d,
  0xf0, 0xe9, 0x62, 0xbe, 0x99, 0x4c, 0x44, 0xbf, 0xf7, 0xd9, 0xc3, 0xbd,
  0x7b, 0x06, 0x9f, 0xbc, 0x3a, 0x01, 0xaf, 0xbe, 0x8f, 0x3d, 0x2a, 0xbf,
  0x33, 0x90, 0x3b, 0x3e, 0x24, 0xa2, 0xb8, 0x3d, 0xe1, 0xe0, 0xd9, 0xbc,
  0x46, 0xd1, 0x4a, 0x3e, 0x9b, 0x91, 0x02, 0xbe, 0x70, 0x77, 0xe8, 0xbc,
  0x5a, 0xe2, 0x10, 0x3e, 0x51, 0x05, 0x88, 0xbe, 0x84, 0xa1, 0x3f, 0xbd,
  0x23, 0xe6, 0x54, 0x3e, 0xdf, 0x2f, 0x5f, 0x3d, 0x61, 0x78, 0xdf, 0xbe,
  0x3f, 0xc4, 0x96, 0x3e, 0x21, 0x1c, 0xa3, 0x3b, 0xcf, 0x47, 0x89, 0xbe,
  0x01, 0x00, 0xd8, 0xbe, 0x47, 0x1a, 0x22, 0xbc, 0xc4, 0x63, 0x8e, 0xbd,
  0x85, 0xbc, 0xac, 0x3c, 0x30, 0x8c, 0x18, 0x3d, 0x75, 0xdd, 0x7e, 0x3e,
  0x44, 0x91, 0x56, 0xbd, 0x6b, 0x05, 0xa1, 0x3d, 0x75, 0x25, 0x02, 0xbe,
  0x05, 0x51, 0xdd, 0x3c, 0x94, 0xa6, 0xeb, 0x3d, 0x23, 0x6f, 0x11, 0xbe,
  0x79, 0x57, 0xbf, 0xbc, 0x51, 0x34, 0xaf, 0x3e, 0xc2, 0xb9, 0x07, 0xbc,
  0x57, 0x75, 0x29, 0xbe, 0xc8, 0xaf, 0xa7, 0x3d, 0xd4, 0x50, 0x89, 0xbc,
  0x2e, 0xaf, 0xe3, 0x3d, 0x5c, 0xf4, 0x1f, 0xbe, 0xaf, 0x5b, 0x4f, 0xbd,
  0x4c, 0x31, 0x9f, 0x3d, 0xc5, 0xcb, 0x68, 0xbe, 0xfd, 0xc7, 0x97, 0x3d,
  0x75, 0xb0, 0x09, 0x3c, 0xc1, 0x63, 0xf6, 0xbc, 0x07, 0xe1, 0xfb, 0xbb,
  0xb6, 0x85, 0xa6, 0xbe, 0x0d, 0x35, 0x53, 0xbd, 0x0d, 0x6a, 0x7e, 0x3e,
  0xc3, 0x0a, 0x24, 0x3d, 0xe7, 0xfd, 0xff, 0xbd, 0x5e, 0x37, 0xc7, 0x3d,
  0x81, 0x3b, 0xa8, 0xbe, 0xb8, 0x29, 0xc6, 0x3d, 0x83, 0xc1, 0x3c, 0xbe,
  0xd8, 0x26, 0x01, 0x3e, 0x82, 0x42, 0x89, 0xbd, 0xf7, 0x2f, 0x51, 0x3d,
  0x4c, 0xe4, 0x4a, 0x3d, 0x4a, 0xa6, 0xb0, 0x3d, 0xd5, 0xf8, 0x6b, 0xbd,
  0xaa, 0x5d, 0x62, 0x3c, 0xf1, 0x39, 0xa1, 0xbc, 0x18, 0x30, 0x19, 0x3d,
  0xb1, 0x5b, 0x1c, 0x3e, 0xbb, 0x4f, 0xd4, 0x3b, 0xc8, 0x09, 0x36, 0xbd,
  0x9f, 0xd3, 0x25, 0x3e, 0x7c, 0xfb, 0x57, 0xbe, 0x93, 0x4e, 0x54, 0xba,
  0xf7, 0xb1, 0x65, 0xbd, 0x10, 0xc9, 0x24, 0x3e, 0xad, 0xe5, 0x95, 0xbd,
  0xf3, 0x14, 0x17, 0x3d, 0xa3, 0x58, 0xb0, 0xbe, 0x2c, 0x26, 0x3a, 0x3d,
  0x28, 0x34, 0xb0, 0xbe, 0x2f, 0x5a, 0x5b, 0xbd, 0x39, 0x9f, 0x81, 0x3e,
  0xd1, 0xf0, 0x09, 0x3e, 0x3a, 0x91, 0x71, 0xbd, 0xcb, 0x9e, 0x9a, 0xbb,
  0x68, 0x83, 0x5c, 0x3c, 0x0d, 0xc8, 0x7a, 0xbd, 0xe1, 0xd3, 0xb0, 0x3e,
  0xb3, 0x0e, 0x86, 0xbe, 0x7a, 0xca, 0x28, 0xbe, 0x7a, 0x2c, 0xf5, 0x3f,
  0xde, 0x3f, 0xfc, 0xbd, 0x87, 0x65, 0x1f, 0xbd, 0xb7, 0x2d, 0x84, 0xbe,
  0xce, 0xe9, 0x3e, 0xbe, 0x7d, 0xd2, 0x3a, 0x3d, 0xe3, 0x7c, 0x4a, 0x3e,
  0x5c, 0x24, 0x81, 0xbd, 0xd2, 0xd8, 0x83, 0x3e, 0xe2, 0x6a, 0xa1, 0xbe,
  0x87, 0x96, 0xa7, 0xbe, 0x03, 0xef, 0x28, 0x3d, 0x23, 0x85, 0x9f, 0x3e,
  0xa6, 0x8a, 0xba, 0xbd, 0xd6, 0x97, 0xbc, 0xbd, 0x25, 0x9a, 0x9d, 0x3e,
  0x28, 0x3b, 0x86, 0x3f, 0x58, 0x50, 0xfd, 0x3e, 0xdf, 0x84, 0x90, 0xbe,
  0x16, 0x6a, 0xeb, 0xbd, 0x89, 0x18, 0x9e, 0x3e, 0xfe, 0xed, 0x1b, 0xbe,
  0xd0, 0xd9, 0x0c, 0x3e, 0xc7, 0x78, 0xab, 0xbd, 0x93, 0xdd, 0x66, 0x3f,
  0xdb, 0xe9, 0x65, 0xbe, 0xd1, 0x54, 0x07, 0xbe, 0xbd, 0x51, 0x10, 0xbe,
  0x13, 0xa2, 0x02, 0x3f, 0x26, 0x5d, 0xa6, 0x3d, 0x3a, 0xf3, 0x25, 0x3e,
  0x89, 0x02, 0xbc, 0x3e, 0xa7, 0x0c, 0x00, 0x3f, 0x72, 0x44, 0xb8, 0x3e,
  0x7d, 0x0d, 0x40, 0xbd, 0xc7, 0x0b, 0x1a, 0xbe, 0x5c, 0xb0, 0x78, 0x3e,
  0x41, 0xd8, 0x3b, 0xbe, 0x05, 0xc3, 0xec, 0xbc, 0x58, 0xe3, 0xd2, 0x3e,
  0xcc, 0x4c, 0x31, 0x3f, 0xd2, 0x9d, 0xe7, 0x3d, 0x5d, 0x36, 0x9a, 0xbd,
  0x64, 0xe3, 0x79, 0x3e, 0xfc, 0x13, 0xbc, 0x3e, 0x0b, 0x99, 0x30, 0x3e,
  0xe6, 0xf7, 0x0d, 0xbe, 0x96, 0xa2, 0x11, 0x3e, 0x68, 0xac, 0xe2, 0x3f,
  0x9d, 0xfd, 0x54, 0x3e, 0x94, 0x6d, 0x20, 0x3e, 0x03, 0xe9, 0xc7, 0xbe,
  0x0b, 0xc6, 0xf3, 0x3e, 0xf8, 0x4d, 0xa5, 0x3d, 0xba, 0x27, 0x32, 0xbe,
  0x9f, 0x62, 0x2a, 0x3f, 0xbf, 0x83, 0x17, 0x3e, 0xe6, 0x89, 0x16, 0x3e,
  0x0e, 0xe2, 0xf5, 0xbd, 0xc8, 0x93, 0x80, 0x3e, 0xef, 0x3e, 0x2d, 0x3e,
  0xd9, 0x70, 0x6e, 0x3e, 0xfa, 0x36, 0x00, 0x3c, 0x14, 0x3b, 0xe7, 0xbd,
  0x59, 0x85, 0x86, 0x3f, 0x1d, 0xdf, 0x59, 0x3e, 0x61, 0x83, 0xa5, 0x3d,
  0xe1, 0x90, 0x64, 0xbe, 0xd6, 0x3a, 0x94, 0xbd, 0x0c, 0x7e, 0x7f, 0x3c,
  0x3f, 0x0c, 0x2f, 0xbe, 0xc1, 0xb2, 0x67, 0x3e, 0xd9, 0x43, 0x44, 0x3e,
  0xaf, 0xe9, 0x9e, 0xbe, 0x06, 0x27, 0x2d, 0xbe, 0xbe, 0x64, 0xb4, 0x3e,
  0xaf, 0xce, 0x04, 0x3e, 0xaf, 0x01, 0xfa, 0x3d, 0xbe, 0x83, 0x40, 0xbe,
  0xa0, 0x12, 0xa5, 0xbd, 0x17, 0x2a, 0xa9, 0x3f, 0xf1, 0xbe, 0xd7, 0x3d,
  0x5b, 0x69, 0xd4, 0xbd, 0x68, 0x21, 0x80, 0xbe, 0x0c, 0x71, 0xa1, 0x3d,
  0x14, 0x7f, 0xff, 0xbd, 0xf5, 0x38, 0xb0, 0x3c, 0xcd, 0x6b, 0xdf, 0xbe,
  0xd2, 0x37, 0x84, 0x3e, 0x8e, 0x7f, 0x00, 0x3c, 0x34, 0x76, 0x5b, 0xbe,
  0xa7, 0xe4, 0xdf, 0xbd, 0xa0, 0x9e, 0xef, 0xbd, 0x6b, 0xa3, 0x92, 0xbc,
  0x27, 0xb0, 0x5f, 0xbe, 0x4c, 0xb6, 0xbe, 0xbd, 0x4a, 0x9e, 0xa4, 0x3e,
  0x05, 0xcd, 0x99, 0xbe, 0x80, 0xd0, 0x38, 0x3e, 0xd9, 0x68, 0x55, 0x3c,
  0xd7, 0x97, 0xd8, 0xbe, 0xb0, 0xa0, 0x8e, 0xbe, 0x90, 0x91, 0x80, 0x3e,
  0x88, 0x84, 0x13, 0xbc, 0x2d, 0x24, 0x2d, 0xbd, 0x2b, 0x4a, 0x17, 0xbe,
  0x09, 0x36, 0xea, 0x3d, 0x1d, 0x71, 0xd3, 0xbe, 0xd7, 0xe5, 0x08, 0xbe,
  0x65, 0x75, 0xc0, 0xbe, 0x1e, 0x6d, 0x83, 0x3e, 0x16, 0x08, 0x1f, 0x3e,
  0xe3, 0xd6, 0xe1, 0xbd, 0x68, 0x94, 0x0f, 0x3e, 0x51, 0x04, 0x55, 0xbe,
  0x93, 0xb7, 0xdd, 0x3b, 0xb3, 0x92, 0x6a, 0xbe, 0x82, 0x82, 0x54, 0xbd,
  0x7a, 0x2c, 0x94, 0xbe, 0x41, 0xd7, 0x43, 0x3c, 0x59, 0xb7, 0xc8, 0xbe,
  0xe9, 0x1b, 0x11, 0x3e, 0x14, 0x10, 0x6f, 0xbc, 0xfd, 0x39, 0x27, 0x3d,
  0xdb, 0x20, 0xad, 0xbd, 0x89, 0x8f, 0xf3, 0xbd, 0x51, 0x4c, 0x85, 0xbd,
  0x7c, 0x65, 0x24, 0xbe, 0xa0, 0xe2, 0x91, 0xbe, 0xcc, 0xea, 0x9f, 0xbd,
  0xdf, 0xc7, 0x1a, 0xbe, 0xb5, 0xfd, 0x8a, 0xbd, 0x04, 0xc4, 0x9d, 0xbd,
  0x77, 0xf5, 0x01, 0x3e, 0x0c, 0x16, 0x97, 0xbe, 0x43, 0xc8, 0x3c, 0xbe,
  0x19, 0xd5, 0x5a, 0xbe, 0x8c, 0xd1, 0x24, 0x3e, 0xdf, 0x69, 0x1e, 0xbd,
  0x17, 0xbd, 0x6e, 0x3c, 0x03, 0x41, 0x1a, 0xbe, 0x0c, 0x71, 0xe8, 0xbd,
  0x7c, 0xf2, 0x32, 0xbf, 0x0a, 0x73, 0x6c, 0xbe, 0xe9, 0x13, 0x85, 0x3d,
  0xdd, 0x99, 0x9e, 0xbe, 0xb5, 0x51, 0x53, 0xbd, 0x17, 0x4f, 0xac, 0xbd,
  0x91, 0x56, 0xa6, 0xbd, 0x4c, 0x1b, 0xa4, 0xbc, 0x50, 0xaa, 0xd1, 0xbe,
  0xf7, 0x80, 0xed, 0xbe, 0x45, 0x77, 0x54, 0xbe, 0x87, 0x71, 0xc8, 0xbc,
  0xdf, 0x33, 0x28, 0xbd, 0xe5, 0x6e, 0x66, 0xbe, 0xc5, 0x00, 0x6c, 0xbd,
  0x25, 0x97, 0xb7, 0x3d, 0xaa, 0x8e, 0x34, 0xbf, 0x0a, 0x47, 0x68, 0xbd,
  0xf3, 0x31, 0xa9, 0x3e, 0x43, 0x30, 0x6c, 0xbe, 0x69, 0x1e, 0x28, 0xbe,
  0xbd, 0xa7, 0xd4, 0xbd, 0x9f, 0xd2, 0x68, 0xbe, 0x94, 0x98, 0xff, 0x3b,
  0xdc, 0x75, 0xfb, 0xbd, 0x03, 0x26, 0x92, 0xbe, 0x0a, 0x9e, 0xee, 0xbd,
  0x29, 0x9d, 0x3f, 0x3e, 0xeb, 0x52, 0xbb, 0xbc, 0x59, 0x39, 0x26, 0xbd,
  0x75, 0x07, 0x82, 0xbd, 0xe7, 0xd1, 0xb3, 0xbb, 0x6b, 0x35, 0x07, 0xbf,
  0xc5, 0x25, 0x41, 0xbe, 0x54, 0xd7, 0x76, 0x3e, 0x56, 0x21, 0xd5, 0xbe,
  0x2d, 0x07, 0xac, 0x3d, 0xdf, 0x98, 0x82, 0xbd, 0x9f, 0x88, 0x00, 0xbe,
  0xbb, 0xb1, 0x04, 0x3e, 0x35, 0x34, 0x0d, 0x3e, 0x5f, 0x46, 0xea, 0xbe,
  0x18, 0x93, 0x25, 0xbe, 0xad, 0x97, 0x11, 0xbe, 0x52, 0x36, 0x32, 0xbd,
  0x4f, 0xed, 0x14, 0xbd, 0xf0, 0x59, 0x52, 0xbd, 0xb8, 0xfe, 0xd7, 0xbd,
  0xb9, 0x28, 0x61, 0xbe, 0xcf, 0x4b, 0x5b, 0x3e, 0xc5, 0xe0, 0xa8, 0x3d,
  0x2d, 0xff, 0x99, 0x3e, 0x74, 0x62, 0x3a, 0xbb, 0x93, 0xcf, 0xac, 0x3c,
  0x2b, 0xe7, 0x7a, 0xbd, 0x89, 0x36, 0x07, 0xbb, 0x80, 0xbc, 0x64, 0x3e,
  0x30, 0xc6, 0x29, 0xbd, 0x52, 0xa9, 0x0a, 0x3c, 0xd9, 0x8a, 0x6d, 0xbd,
  0x4e, 0xd4, 0x1d, 0xbd, 0xcf, 0xc5, 0x13, 0xbe, 0xc0, 0xa4, 0x95, 0xbc,
  0x3c, 0xa2, 0xf4, 0xbc, 0x89, 0x97, 0x1d, 0x3d, 0xc8, 0xc8, 0x86, 0x3e,
  0x38, 0xcf, 0x0d, 0xbf, 0x5e, 0x0b, 0xb2, 0x3d, 0xd6, 0x81, 0xac, 0xbe,
  0x50, 0xff, 0xc3, 0xbc, 0xcc, 0xd5, 0x75, 0xbd, 0xde, 0x2d, 0x98, 0xbd,
  0x03, 0x14, 0xb6, 0xbd, 0xe7, 0x4e, 0xc6, 0xbd, 0xd9, 0x2a, 0x0f, 0xbc,
  0x65, 0x1e, 0xa1, 0xbc, 0x9a, 0x5e, 0x1c, 0xbe, 0xaf, 0x7f, 0x02, 0xbe,
  0x5f, 0x1e, 0x97, 0xbc, 0x60, 0x07, 0x92, 0x3c, 0x53, 0x17, 0x46, 0xbe,
  0xa9, 0x90, 0xe7, 0x3b, 0x5f, 0xc3, 0xeb, 0x3d, 0xb5, 0x58, 0x75, 0xbe,
  0x01, 0xd0, 0x66, 0xbe, 0x2e, 0x73, 0x78, 0xbe, 0x71, 0x11, 0xa8, 0xbd,
  0x6a, 0x8a, 0xa0, 0x3d, 0xe4, 0x64, 0x09, 0xbe, 0x84, 0xe3, 0xad, 0xbd,
  0x84, 0xa7, 0x52, 0xbe, 0xe0, 0xfc, 0x2a, 0xbe, 0xc6, 0xbe, 0xfe, 0xbb,
  0xc5, 0x80, 0x3f, 0xbe, 0x13, 0x82, 0x31, 0xbd, 0x6e, 0x26, 0xac, 0xbc,
  0xe2, 0x76, 0x76, 0x3d, 0xd5, 0x3c, 0x8a, 0x3d, 0x2b, 0x22, 0x18, 0xbe,
  0x1d, 0xec, 0x38, 0x3e, 0xea, 0x19, 0xa4, 0xbe, 0x4f, 0xf8, 0x86, 0xbe,
  0x73, 0xd4, 0xa7, 0x3d, 0xed, 0xcf, 0xc3, 0xbd, 0x0e, 0x8e, 0xce, 0xbb,
  0xf0, 0x37, 0x03, 0x3e, 0xa8, 0xc7, 0x28, 0xbd, 0x58, 0x5b, 0x4a, 0xbd,
  0x38, 0xb0, 0xfb, 0x3c, 0x41, 0xd5, 0xf7, 0xbd, 0xeb, 0xe2, 0x92, 0x3d,
  0xb6, 0x01, 0x88, 0xbe, 0xb4, 0x23, 0x66, 0x3d, 0x5a, 0x9b, 0x7b, 0xbd,
  0x1c, 0x91, 0x71, 0x3b, 0xd2, 0xd2, 0x53, 0xbe, 0xbb, 0x69, 0xa9, 0xbc,
  0xd8, 0x34, 0x05, 0xbe, 0x04, 0x02, 0xa7, 0x3c, 0x7b, 0xc7, 0xc1, 0xbc,
  0x6e, 0xbc, 0x46, 0x3c, 0xf3, 0xa3, 0xca, 0xbd, 0x7a, 0xbe, 0x44, 0x3d,
  0xe4, 0xe8, 0x97, 0x3d, 0x5e, 0x69, 0x33, 0xbe, 0x31, 0x34, 0x23, 0xbe,
  0xde, 0x24, 0x24, 0x3e, 0xa9, 0x5e, 0x0e, 0xbe, 0x67, 0x1f, 0xeb, 0x3c,
  0x87, 0x6e, 0xf1, 0xbd, 0xe9, 0x80, 0x2c, 0x3e, 0x46, 0x66, 0x3d, 0xbe,
  0xbc, 0x70, 0xc7, 0xbd, 0xc5, 0x95, 0x56, 0x3d, 0x04, 0xfc, 0x1b, 0xbd,
  0x5a, 0xcf, 0x79, 0x3d, 0xd3, 0xc6, 0xf0, 0xbd, 0xcc, 0xa0, 0x41, 0xbd,
  0x21, 0xfa, 0xf6, 0xbd, 0x4d, 0x32, 0xb3, 0x3c, 0x6f, 0xec, 0x33, 0xbe,
  0xc9, 0x0c, 0x92, 0xbe, 0x59, 0xf8, 0x4b, 0xbd, 0x3f, 0x15, 0x3c, 0xbd,
  0xe5, 0xd0, 0xa7, 0x3d, 0x6e, 0x74, 0x74, 0xbd, 0xe6, 0xd7, 0x33, 0x3e,
  0x96, 0x04, 0x22, 0x3d, 0x94, 0x3e, 0x8a, 0xbc, 0x7d, 0x56, 0x10, 0xbe,
  0xfb, 0xe4, 0x63, 0x3d, 0x07, 0x30, 0x1f, 0xbd, 0x30, 0xe6, 0x65, 0xbe,
  0x3f, 0x0c, 0xee, 0xbd, 0xac, 0x82, 0x4c, 0xbe, 0x81, 0x5f, 0x4b, 0xbe,
  0x33, 0x37, 0x01, 0xbe, 0x69, 0x9e, 0xb0, 0xbd, 0xf1, 0xd4, 0x1b, 0xbd,
  0x07, 0xe6, 0x45, 0xbb, 0x8f, 0x47, 0x0d, 0xbe, 0x62, 0xf0, 0x13, 0x3c,
  0x83, 0x1a, 0xe9, 0xbd, 0x83, 0x0a, 0xe3, 0x3d, 0xe8, 0xef, 0x5f, 0xbe,
  0xc8, 0xe4, 0xa2, 0xbe, 0x82, 0x8f, 0xbf, 0xbc, 0x43, 0x79, 0x81, 0xbd,
  0xff, 0x5f, 0xe6, 0xbd, 0x5b, 0x8f, 0x64, 0xbe, 0x93, 0x94, 0x84, 0x3d,
  0xdf, 0x9e, 0x98, 0xbd, 0x2f, 0x26, 0xcb, 0xbc, 0x3f, 0x8e, 0x22, 0xbe,
  0x10, 0xa1, 0xab, 0xbd, 0xc4, 0xe1, 0x49, 0xbe, 0x2a, 0xb0, 0xfd, 0xbd,
  0xc8, 0x58, 0xdd, 0xbc, 0x1b, 0xce, 0x5c, 0xbd, 0x11, 0x64, 0xd2, 0xbd,
  0x65, 0xfb, 0xa7, 0xbd, 0x9c, 0xbd, 0x42, 0xbe, 0xbf, 0x51, 0x9b, 0x3d,
  0xbf, 0x05, 0xc6, 0xbc, 0x8c, 0x5e, 0x0e, 0xbe, 0x1f, 0x66, 0x2f, 0xbe,
  0xc6, 0xf1, 0xa0, 0xbd, 0x13, 0x25, 0x75, 0xbd, 0xd1, 0x3d, 0xaa, 0xbb,
  0x73, 0xbb, 0xcd, 0xbd, 0x3a, 0xb5, 0x1d, 0xbd, 0x35, 0x55, 0xa8, 0xbd,
  0xd7, 0x0f, 0x21, 0xbc, 0x55, 0xbe, 0xa4, 0xbc, 0xa4, 0xc7, 0x9b, 0xbc,
  0xb5, 0x1a, 0x1d, 0x3c, 0x23, 0x31, 0x3b, 0xbe, 0x3a, 0xab, 0x05, 0xbf,
  0x59, 0xb6, 0x0d, 0xbe, 0xa6, 0xd6, 0xa6, 0xbc, 0x70, 0x04, 0x5c, 0xbd,
  0xc0, 0x53, 0x4a, 0xbe, 0x97, 0x5c, 0xbd, 0xbb, 0x0d, 0x5a, 0xbf, 0xbd,
  0xa0, 0xe2, 0x80, 0xbe, 0xc9, 0x14, 0x40, 0x3d, 0xac, 0x40, 0x33, 0xbc,
  0x27, 0xf0, 0x81, 0x3d, 0xa7, 0x63, 0x41, 0x3d, 0x25, 0xf2, 0x98, 0x3e,
  0xc3, 0x54, 0x2a, 0xbe, 0xb4, 0x32, 0xa5, 0xbe, 0x28, 0x39, 0x83, 0xbe,
  0x37, 0x09, 0x15, 0xbf, 0xc7, 0x78, 0xdc, 0xbd, 0x27, 0x59, 0xcf, 0xbc,
  0x40, 0x9a, 0xea, 0x3d, 0x56, 0x43, 0x45, 0x3d, 0xef, 0xa1, 0x83, 0xbd,
  0x5f, 0xa9, 0x24, 0x3c, 0xaa, 0xa2, 0x05, 0xbe, 0xa4, 0x77, 0x1e, 0xbe,
  0x90, 0x1d, 0xcd, 0xbd, 0x45, 0x6b, 0xb5, 0xbd, 0x9e, 0x07, 0xfc, 0x3d,
  0x8b, 0xa7, 0x59, 0x3e, 0x5b, 0xeb, 0xe7, 0xbd, 0x7e, 0x6d, 0x83, 0x3d,
  0xd7, 0xa9, 0x72, 0xbd, 0x5e, 0x9f, 0x87, 0xbe, 0xc9, 0x56, 0xe3, 0xbd,
  0x24, 0x35, 0x1b, 0xbe, 0x22, 0x5f, 0xd3, 0xbc, 0x5c, 0xfb, 0x84, 0xbe,
  0x62, 0x5a, 0x4e, 0xbe, 0xec, 0xf3, 0x9e, 0xbe, 0x79, 0xbb, 0x5e, 0xbe,
  0x78, 0xfa, 0x90, 0x3d, 0x67, 0x12, 0x54, 0xbe, 0xb0, 0xd8, 0x39, 0x3e,
  0xa6, 0xe0, 0x28, 0xbe, 0xa4, 0xdb, 0x91, 0x3e, 0x5c, 0x28, 0x17, 0x3e,
  0x5b, 0x79, 0x18, 0xbe, 0x93, 0x08, 0x4b, 0xbd, 0xb1, 0x3a, 0x72, 0xbe,
  0x53, 0x87, 0x10, 0xbe, 0xf0, 0x47, 0xc8, 0xbd, 0x56, 0x3f, 0xab, 0x3d,
  0x23, 0x2b, 0x80, 0x3d, 0x72, 0xe6, 0xa0, 0x3c, 0x92, 0x09, 0x44, 0xbe,
  0xe9, 0x27, 0x12, 0xbe, 0x99, 0x7a, 0x6c, 0x3d, 0xd8, 0x9e, 0x2f, 0x3d,
  0x42, 0xf1, 0xbb, 0x3d, 0xcc, 0x48, 0x27, 0xbe, 0x0e, 0x3d, 0x19, 0x3e,
  0x5e, 0xbe, 0x6e, 0x3d, 0xe2, 0x02, 0xc3, 0x3d, 0x75, 0x1c, 0x26, 0x3e,
  0x0a, 0x41, 0x9e, 0x3d, 0x94, 0x9b, 0x9e, 0xbc, 0x96, 0x3b, 0xa6, 0xbe,
  0x5f, 0xa6, 0x5f, 0x3e, 0x52, 0xab, 0x91, 0x3d, 0xda, 0x06, 0x50, 0xbe,
  0x3b, 0x89, 0x24, 0xbe, 0x65, 0x5a, 0x65, 0xbe, 0xa6, 0x7e, 0x6f, 0x3c,
  0xe6, 0x72, 0xaa, 0xbe, 0x49, 0xbb, 0x42, 0xbd, 0x29, 0x68, 0x68, 0x3e,
  0x5d, 0x62, 0x87, 0x3e, 0xba, 0xb3, 0x23, 0x3e, 0xc3, 0x69, 0x1e, 0x3e,
  0x3d, 0x86, 0x90, 0xbd, 0x91, 0x38, 0x75, 0x3d, 0x51, 0xba, 0xaf, 0xbe,
  0x09, 0x13, 0x92, 0xbd, 0xe8, 0x1d, 0xd9, 0x3c, 0x3a, 0x78, 0x7e, 0x3b,
  0x1c, 0xf3, 0x08, 0xbe, 0x09, 0x41, 0x15, 0xbe, 0x5c, 0x54, 0xa2, 0xbd,
  0xe3, 0x54, 0x15, 0xbe, 0x87, 0x95, 0x37, 0xbe, 0x2e, 0x6a, 0x00, 0xbe,
  0x93, 0x6c, 0xd3, 0x3d, 0xf3, 0x4f, 0xc1, 0x3c, 0x2e, 0xf5, 0x74, 0xbd,
  0x57, 0xa0, 0xa2, 0x3d, 0xdc, 0xc8, 0xc8, 0xbd, 0xa1, 0x73, 0x80, 0xbd,
  0x87, 0xa7, 0x22, 0xbd, 0x29, 0x6e, 0x93, 0x3a, 0xd2, 0x07, 0x3a, 0xbe,
  0x6e, 0x62, 0x12, 0xbd, 0x53, 0x64, 0x98, 0x3d, 0x0d, 0x9f, 0xb5, 0x3b,
  0x11, 0x6e, 0x5f, 0xbe, 0x7d, 0x0c, 0xe5, 0xbc, 0xaa, 0x51, 0xf5, 0xbd,
  0xa0, 0xae, 0x1c, 0x3d, 0xb3, 0x95, 0x80, 0xbe, 0xc2, 0xcc, 0xb8, 0x3c,
  0x7b, 0x2f, 0xa3, 0xbd, 0x1a, 0x8a, 0x32, 0xbe, 0x44, 0x2d, 0x5c, 0xbe,
  0x4c, 0x5a, 0xf5, 0x3b, 0xee, 0x34, 0x62, 0xbe, 0x71, 0xf2, 0xfb, 0x3d,
  0xa3, 0x2c, 0x9a, 0x3d, 0xfe, 0x17, 0xb0, 0x3d, 0x81, 0xac, 0x3d, 0xbe,
  0x51, 0x05, 0x58, 0xbe, 0x03, 0x8b, 0x8c, 0xbd, 0xf1, 0x80, 0x90, 0xbc,
  0x54, 0x7e, 0x0c, 0x3e, 0x83, 0x0e, 0xb5, 0x3d, 0x9a, 0x2f, 0x61, 0xbe,
  0x4f, 0x5d, 0xaf, 0x3d, 0x9f, 0xfc, 0x6e, 0xbe, 0xc5, 0x64, 0x31, 0xbe,
  0xa0, 0x85, 0x97, 0xbe, 0x45, 0x83, 0x5e, 0x3c, 0x7f, 0xb7, 0xbd, 0x3d,
  0x05, 0x7f, 0xb5, 0xbd, 0xef, 0xc1, 0xe6, 0xbd, 0xaf, 0xeb, 0x45, 0x3d,
  0x8d, 0xad, 0x22, 0x3e, 0x9e, 0xba, 0x47, 0xbd, 0x6f, 0x21, 0x85, 0xbe,
  0xb3, 0x69, 0x78, 0xbe, 0xad, 0xea, 0x0e, 0xbe, 0x2c, 0x8c, 0xc3, 0x3d,
  0x47, 0x53, 0x7e, 0x3c, 0xf1, 0x5f, 0x49, 0x3d, 0xbb, 0x50, 0xd3, 0xbd,
  0x67, 0xd5, 0xc5, 0xbd, 0x2b, 0x8f, 0x0a, 0xbe, 0x72, 0x9c, 0x14, 0xbe,
  0x6b, 0x43, 0x51, 0xbe, 0x82, 0x76, 0x3d, 0xbe, 0x7c, 0xbc, 0x47, 0x3c,
  0xf7, 0x61, 0x91, 0x3c, 0xf9, 0x74, 0xf2, 0xbd, 0x77, 0x18, 0x37, 0xbd,
  0x71, 0x64, 0xa0, 0xbe, 0x06, 0x02, 0x93, 0xbe, 0x74, 0xbd, 0x1d, 0x3e,
  0x97, 0xe8, 0x44, 0xbe, 0xb0, 0xe2, 0x73, 0x3d, 0x75, 0xdd, 0x4c, 0x3d,
  0xde, 0xd4, 0x3b, 0xbe, 0x3b, 0xbf, 0xc2, 0xbc, 0xc8, 0xf3, 0xfc, 0xbd,
  0x6c, 0xa4, 0x11, 0xbe, 0xf3, 0xf8, 0xa7, 0xbd, 0x50, 0x82, 0xf4, 0x3d,
  0xfd, 0x3a, 0xd1, 0xbc, 0xb2, 0xb0, 0x49, 0xbe, 0x68, 0x3e, 0xb8, 0x3d,
  0xad, 0xb9, 0x49, 0xbe, 0x76, 0x04, 0x72, 0xbd, 0xe8, 0xbb, 0x9c, 0x3d,
  0x60, 0xe3, 0x0b, 0x3e, 0x91, 0x1e, 0x2e, 0x3d, 0x42, 0x3f, 0x7c, 0xbd,
  0xe4, 0x1d, 0x43, 0x3d, 0x25, 0x3d, 0x37, 0x3e, 0xd9, 0xd8, 0xd7, 0x3c,
  0xc0, 0xc2, 0x5f, 0xbe, 0x47, 0xc2, 0x2a, 0xbe, 0xc1, 0xd9, 0x1e, 0xbe,
  0xca, 0x03, 0x25, 0x3e, 0x84, 0xab, 0x8d, 0xbd, 0xea, 0x6b, 0xab, 0x3c,
  0xbd, 0xfa, 0xc8, 0x3d, 0x49, 0x1f, 0xc0, 0x3d, 0xfb, 0x3b, 0xbf, 0xbc,
  0x24, 0x57, 0xae, 0xbd, 0xe7, 0x87, 0x67, 0xbd, 0x89, 0x00, 0xa1, 0xbd,
  0x16, 0xf1, 0x98, 0x3d, 0x32, 0x1d, 0x19, 0x3d, 0x63, 0xc8, 0xa4, 0xbc,
  0xce, 0x2e, 0x58, 0xbe, 0x82, 0x90, 0xb3, 0xbe, 0x38, 0xe9, 0x84, 0xbe,
  0xaa, 0xf7, 0x78, 0xbe, 0x5f, 0x9a, 0x84, 0xbd, 0x94, 0xb2, 0xc4, 0x3d,
  0xdb, 0xc3, 0x35, 0xbe, 0x12, 0x5e, 0x07, 0xbe, 0x10, 0xaf, 0xbf, 0x3d,
  0x05, 0x54, 0xa5, 0xbe, 0x90, 0x09, 0xe9, 0xba, 0x99, 0xa3, 0xd2, 0x3b,
  0xf7, 0x68, 0x67, 0xbe, 0x51, 0x80, 0x4a, 0xbe, 0xd0, 0x58, 0x1c, 0xbe,
  0x78, 0x58, 0x2f, 0xbe, 0x5f, 0xb9, 0xdf, 0x3d, 0x62, 0x5f, 0x01, 0xbe,
  0x9b, 0x04, 0x29, 0x3e, 0xa2, 0xd0, 0x8a, 0x3d, 0xee, 0x5c, 0x36, 0x3e,
  0xa2, 0x7b, 0xb3, 0xbd, 0xee, 0x39, 0xd3, 0xbd, 0x11, 0xf0, 0x5b, 0x3d,
  0xe1, 0xa5, 0x66, 0x3e, 0x29, 0x2c, 0x80, 0x3c, 0xfa, 0xc3, 0x08, 0x3d,
  0x4b, 0x06, 0x0e, 0x3e, 0xbc, 0x5e, 0x57, 0xbe, 0x4b, 0x33, 0x2b, 0xbb,
  0x90, 0xb6, 0xa0, 0xbe, 0x01, 0xba, 0x88, 0xbd, 0x78, 0xb8, 0xd4, 0xbd,
  0xcf, 0xf2, 0x00, 0x3e, 0x84, 0xd5, 0x8a, 0xbd, 0x61, 0xd3, 0x87, 0x3e,
  0xb6, 0xe8, 0x88, 0xbe, 0x4b, 0x3f, 0x87, 0x3e, 0x5c, 0xcc, 0xac, 0xbd,
  0xef, 0x0f, 0x8d, 0xbe, 0xfc, 0x1a, 0x66, 0x3e, 0x3b, 0xcb, 0x81, 0x3c,
  0x91, 0xed, 0x3d, 0x3d, 0xcf, 0x69, 0x45, 0x3e, 0x97, 0x01, 0x97, 0xba,
  0x45, 0x73, 0x04, 0x3d, 0x3f, 0x76, 0x93, 0x3d, 0xf7, 0x29, 0xeb, 0xbe,
  0x3a, 0x8e, 0xe5, 0x3e, 0xfb, 0x9a, 0x0f, 0x3e, 0xfc, 0x0f, 0x29, 0xbe,
  0x82, 0x1e, 0xbc, 0xbe, 0x87, 0xde, 0x57, 0xbe, 0xff, 0xda, 0x99, 0xbd,
  0xbb, 0x02, 0x17, 0x3c, 0xe4, 0x9a, 0x5f, 0xbf, 0x53, 0x1e, 0x1e, 0xbe,
  0xa0, 0xd8, 0xcd, 0xbc, 0xc9, 0x9a, 0x62, 0xbe, 0x75, 0x2e, 0xeb, 0xbe,
  0x3d, 0xb1, 0x21, 0x3e, 0x97, 0x51, 0x06, 0xbc, 0x66, 0x3b, 0x7a, 0xbc,
  0x2d, 0x9b, 0x98, 0xbc, 0x3b, 0x1f, 0xc9, 0x3e, 0x04, 0x7f, 0x8d, 0xbe,
  0xfa, 0xc0, 0x5c, 0xbe, 0xdf, 0x1a, 0x04, 0xbf, 0x17, 0x88, 0x84, 0xbe,
  0x8f, 0x7c, 0x4e, 0xbe, 0xe7, 0xaa, 0xca, 0xbe, 0x62, 0xae, 0x57, 0xbf,
  0xad, 0xb4, 0xd3, 0xbe, 0x26, 0x28, 0x0d, 0xbe, 0xdc, 0x67, 0x27, 0xbf,
  0x05, 0x7a, 0xf6, 0xbe, 0x8f, 0x86, 0xf4, 0x3d, 0x6f, 0xf0, 0x82, 0xbf,
  0x47, 0xfe, 0xed, 0x3c, 0x0f, 0x33, 0xec, 0x3d, 0xe4, 0x51, 0xc2, 0xbe,
  0x83, 0xe2, 0xa8, 0xbd, 0x16, 0x4d, 0x26, 0xbe, 0xd3, 0xa4, 0xbf, 0xbe,
  0xd0, 0x81, 0x38, 0xbd, 0xc9, 0x09, 0x71, 0x3e, 0xfa, 0x8e, 0xb1, 0xbe,
  0x52, 0xd1, 0x63, 0x3d, 0xfc, 0x45, 0xfd, 0x3e, 0xe0, 0x17, 0x02, 0xbe,
  0x96, 0x6a, 0x03, 0xbe, 0xc9, 0x98, 0xc6, 0xbd, 0xae, 0x4b, 0x82, 0x3e,
  0x22, 0xd6, 0x77, 0xbd, 0xf6, 0xf9, 0x43, 0xbe, 0xf5, 0x14, 0xbb, 0x3c,
  0x45, 0x22, 0x2f, 0x3d, 0x7f, 0x9d, 0x83, 0xbe, 0xdd, 0x4a, 0xe9, 0x3d,
  0x8a, 0x15, 0x23, 0xbc, 0xc6, 0x04, 0xe1, 0xbd, 0x86, 0xff, 0xc7, 0xbd,
  0xaf, 0xca, 0x15, 0xbe, 0xf3, 0x84, 0xa2, 0x3d, 0x6f, 0x15, 0xef, 0x3d,
  0xdc, 0x8f, 0x09, 0x3d, 0xda, 0xa1, 0xf9, 0xbc, 0x50, 0x15, 0x83, 0x3e,
  0x78, 0xf6, 0x9c, 0xbe, 0x61, 0xe1, 0x5f, 0x3d, 0x8b, 0x26, 0x9f, 0xbd,
  0x25, 0x79, 0x01, 0x3e, 0xc3, 0xf5, 0xf2, 0x3d, 0x2c, 0x5d, 0x5a, 0xbd,
  0x5c, 0x66, 0x2e, 0xbe, 0xde, 0x04, 0x94, 0xbc, 0x7c, 0x29, 0xf9, 0xbd,
  0xd6, 0xac, 0x85, 0xbe, 0x56, 0xde, 0x42, 0xbc, 0x5c, 0x42, 0x96, 0xbe,
  0x07, 0x7f, 0xed, 0x3d, 0x0b, 0x35, 0x94, 0xbd, 0xd0, 0xc5, 0x26, 0x3c,
  0x42, 0x0e, 0x37, 0xbe, 0x9d, 0x8e, 0x6b, 0xbd, 0x1b, 0x68, 0x00, 0xbe,
  0xc5, 0x1f, 0x4f, 0xbe, 0xcd, 0x7f, 0x4d, 0x3c, 0xe8, 0x2c, 0x68, 0x3e,
  0x77, 0xc5, 0xb3, 0xbc, 0x84, 0x43, 0xae, 0x3d, 0x3f, 0x20, 0xb5, 0xbe,
  0xa0, 0xce, 0x3b, 0xbe, 0xe4, 0xb3, 0x58, 0x3e, 0x86, 0xc4, 0xa8, 0xbd,
  0xfc, 0x87, 0x39, 0xbe, 0xf5, 0x87, 0x3b, 0xbf, 0xeb, 0x01, 0x88, 0x3c,
  0x95, 0xea, 0x0e, 0xbe, 0x8c, 0xc2, 0xd8, 0xbe, 0x6d, 0xf0, 0x06, 0xbe,
  0xd3, 0xc6, 0x9d, 0x3c, 0x4e, 0xc8, 0x82, 0x3e, 0xb5, 0x40, 0x51, 0xbe,
  0x71, 0x1a, 0xde, 0x3d, 0xbf, 0x1c, 0x63, 0x3b, 0x5a, 0x82, 0x45, 0x3d,
  0x9e, 0xfa, 0x36, 0xbe, 0xa5, 0x42, 0x25, 0x3e, 0x58, 0x4c, 0xa7, 0x3d,
  0x6d, 0x61, 0xe6, 0xbd, 0x58, 0x64, 0x6b, 0xbe, 0xd8, 0x21, 0x95, 0x3d,
  0xb5, 0x0d, 0x73, 0x3d, 0xa8, 0x33, 0xfc, 0xbd, 0x2d, 0x52, 0x98, 0xbe,
  0x09, 0x0e, 0x2b, 0x3e, 0x4d, 0xf3, 0x0a, 0x3d, 0x8a, 0x4d, 0x24, 0x3e,
  0xec, 0x1f, 0x8e, 0x3d, 0xee, 0x4c, 0xad, 0xbd, 0x88, 0x98, 0x4a, 0x3e,
  0x8b, 0x56, 0xb5, 0x3c, 0x7e, 0xea, 0x37, 0xbd, 0x6f, 0xea, 0xaa, 0x3e,
  0x8f, 0xe8, 0x17, 0x3d, 0x9c, 0x03, 0xa6, 0xbd, 0x13, 0x60, 0x6e, 0xbe,
  0x18, 0xc8, 0xeb, 0x3b, 0xce, 0x96, 0xc1, 0x3c, 0x1b, 0x3c, 0xfb, 0xbc,
  0xf7, 0x9c, 0x00, 0xbe, 0x7c, 0xc0, 0xc6, 0x3c, 0xb4, 0x9f, 0x58, 0xbc,
  0x4f, 0x61, 0x18, 0xbd, 0xb8, 0xef, 0x27, 0x3e, 0x24, 0x39, 0x0c, 0xbf,
  0xd4, 0xe5, 0xe5, 0x3d, 0x51, 0x40, 0x95, 0x3c, 0xb0, 0x4e, 0x1b, 0xbe,
  0x11, 0x0e, 0xb0, 0x3e, 0xe2, 0x42, 0xb4, 0x3d, 0x77, 0xb1, 0xcf, 0xbd,
  0x4c, 0x8d, 0xe5, 0xbd, 0x2e, 0xe8, 0xe1, 0xbd, 0xab, 0x48, 0x89, 0x3d,
  0x15, 0x1d, 0x38, 0xbe, 0xef, 0xfc, 0xc8, 0xbc, 0x1c, 0x26, 0x8c, 0xbd,
  0x77, 0x8c, 0xaf, 0x3b, 0x2e, 0x4d, 0x0f, 0xbe, 0xf0, 0x17, 0x86, 0x3d,
  0xef, 0xc3, 0x08, 0xbe, 0x9f, 0xca, 0x27, 0x3e, 0x14, 0xb6, 0x7d, 0x3d,
  0xc1, 0xea, 0x62, 0xbe, 0xf0, 0xfc, 0xa7, 0x3e, 0x93, 0xa1, 0xd3, 0xbc,
  0x4d, 0x34, 0x31, 0xbe, 0x42, 0x44, 0x65, 0xbe, 0x44, 0x46, 0x8a, 0xbe,
  0x5a, 0xc1, 0x90, 0x3d, 0x8d, 0xbf, 0x61, 0xbe, 0x03, 0x69, 0xda, 0xbd,
  0xa1, 0x15, 0x29, 0xbd, 0x98, 0xcc, 0x33, 0x3d, 0x44, 0x5a, 0x14, 0x3e,
  0x3c, 0xa4, 0xe8, 0xbd, 0xe2, 0x56, 0x2b, 0x3e, 0xce, 0x69, 0xf7, 0x3c,
  0xe2, 0xaf, 0x46, 0x3b, 0xa4, 0x0e, 0xbf, 0xbe, 0xaa, 0x07, 0x5e, 0x3d,
  0xca, 0xe6, 0xb9, 0xbd, 0x2e, 0x70, 0x33, 0xbe, 0xfb, 0xc3, 0x73, 0xbe,
  0xd5, 0xce, 0xbf, 0xbe, 0xd0, 0xee, 0x8f, 0x3d, 0xd9, 0x6f, 0x3f, 0xbe,
  0x30, 0x87, 0xbb, 0xbe, 0x5a, 0x42, 0x9e, 0xbe, 0x6d, 0x68, 0xfa, 0x3d,
  0xdf, 0x40, 0xc6, 0x3e, 0x87, 0x40, 0x1e, 0xbe, 0x99, 0x24, 0x04, 0x3e,
  0xa8, 0x7b, 0xf3, 0xbc, 0x62, 0xf3, 0x6d, 0xbc, 0x8c, 0xbe, 0x0c, 0xbe,
  0x04, 0xa6, 0xe0, 0x3d, 0x17, 0x0b, 0xa5, 0x3c, 0xe7, 0xac, 0x81, 0xbc,
  0x4d, 0x85, 0xa7, 0xbd, 0x78, 0x2b, 0x12, 0xbe, 0xf0, 0xc8, 0x26, 0xbd,
  0xd0, 0x5f, 0x11, 0xbe, 0xf3, 0x1e, 0xbd, 0xbd, 0x76, 0xb6, 0xd8, 0x3c,
  0x17, 0x2e, 0x57, 0xbb, 0x8a, 0xde, 0x7e, 0x3e, 0xde, 0x17, 0x61, 0x3d,
  0x9a, 0x09, 0xb5, 0x3d, 0xac, 0x65, 0x28, 0xbe, 0xc8, 0xcd, 0x79, 0x3d,
  0xf6, 0xf0, 0x36, 0xbe, 0xa9, 0x69, 0x80, 0x3e, 0x96, 0x3d, 0xf6, 0xbd,
  0x26, 0xec, 0xee, 0xbe, 0x04, 0x27, 0x20, 0xbd, 0xd2, 0x7a, 0x7a, 0xbe,
  0x32, 0x19, 0xdc, 0xbc, 0xee, 0x92, 0x0c, 0xbe, 0x2a, 0x64, 0x03, 0xbe,
  0xe2, 0xcd, 0x39, 0xbd, 0x99, 0x64, 0x55, 0xbe, 0xc7, 0xfb, 0x18, 0xbe,
  0x5c, 0x60, 0xf4, 0xbd, 0xb9, 0x31, 0x84, 0xbe, 0x23, 0x32, 0x85, 0x3d,
  0xd2, 0x18, 0x3c, 0x3d, 0x0b, 0x1a, 0xae, 0xbd, 0x45, 0xf3, 0x67, 0x3e,
  0x1c, 0xac, 0x22, 0x3e, 0x68, 0x2d, 0x05, 0xbf, 0xec, 0xfe, 0x5f, 0xbe,
  0xb8, 0x22, 0x85, 0x3c, 0xec, 0xc3, 0x38, 0x3c, 0x86, 0x5b, 0xe0, 0xbe,
  0xba, 0x6a, 0x65, 0xbe, 0x38, 0x12, 0x6c, 0x3e, 0x44, 0x7c, 0xd6, 0x3d,
  0x54, 0xee, 0xe0, 0x3c, 0xbc, 0xdb, 0x4d, 0xbd, 0xa0, 0x4a, 0x06, 0xbf,
  0xc3, 0x8c, 0x80, 0x3e, 0x2b, 0xf6, 0x80, 0x3d, 0x9f, 0x57, 0x35, 0xbe,
  0x4f, 0x68, 0x29, 0x3e, 0x88, 0xac, 0x5d, 0x3e, 0x0a, 0x37, 0x9b, 0xbd,
  0x09, 0x18, 0xf8, 0xbe, 0x13, 0xed, 0x5e, 0xbd, 0x31, 0xe1, 0x89, 0x3c,
  0xc7, 0x5f, 0x69, 0xbe, 0x87, 0x26, 0x5c, 0xbe, 0xd2, 0xfe, 0x89, 0x3d,
  0x90, 0xde, 0x00, 0x3f, 0x0e, 0x4c, 0x59, 0x3e, 0x6e, 0x7b, 0x32, 0xbe,
  0x48, 0xb9, 0x6b, 0xbe, 0xd3, 0xa9, 0xa6, 0x3d, 0x8f, 0xde, 0x85, 0x3d,
  0x55, 0x68, 0x7a, 0xbe, 0x50, 0x39, 0x29, 0x3e, 0x41, 0xcb, 0x80, 0x3d,
  0xb2, 0xab, 0x0c, 0xbc, 0x51, 0xba, 0xa7, 0xbe, 0x3c, 0x54, 0x60, 0x3e,
  0xc3, 0x27, 0x97, 0x3d, 0xdf, 0x3d, 0x50, 0xbe, 0x22, 0xad, 0x61, 0xbe,
  0xc3, 0xe6, 0x1c, 0x3e, 0xb5, 0x1b, 0xf5, 0x3e, 0x32, 0xd4, 0xdb, 0x3e,
  0xec, 0x03, 0xcd, 0x3d, 0xc7, 0x86, 0x43, 0x3e, 0x0e, 0x09, 0xae, 0x3d,
  0x14, 0x03, 0x7d, 0x3d, 0x38, 0x12, 0x80, 0xbe, 0x3d, 0xd3, 0x56, 0x3c,
  0xd7, 0xd8, 0x85, 0x3a, 0xde, 0xe6, 0x50, 0xbe, 0x98, 0x34, 0x8d, 0xbe,
  0xad, 0x92, 0xa4, 0x3e, 0x50, 0x40, 0x55, 0x3d, 0x5e, 0x5c, 0x9e, 0xbe,
  0xad, 0xa6, 0x94, 0xbe, 0x9c, 0x88, 0xd4, 0x3d, 0x8d, 0x82, 0xa9, 0x3e,
  0xf3, 0x36, 0x70, 0xbe, 0x55, 0x9a, 0xe5, 0x3c, 0xe2, 0x5b, 0xea, 0xbe,
  0x2f, 0xe4, 0xbd, 0xbd, 0x64, 0x6a, 0xad, 0x3c, 0xbc, 0xc9, 0x98, 0xbe,
  0x73, 0x3b, 0x30, 0x3c, 0xfc, 0x89, 0x93, 0xbe, 0xb6, 0xfb, 0x5e, 0xbe,
  0x0f, 0x53, 0x42, 0xbf, 0xb5, 0x97, 0xac, 0xbd, 0x14, 0x1c, 0xaf, 0x3d,
  0x9a, 0x02, 0x29, 0xbe, 0xf3, 0x33, 0x8f, 0xbe, 0xcc, 0x52, 0xc9, 0xbd,
  0x92, 0xef, 0x7d, 0x3e, 0x27, 0x24, 0x11, 0x3e, 0x6b, 0x91, 0x39, 0xbd,
  0x6a, 0xe8, 0xcc, 0xbe, 0xb4, 0x4d, 0xd1, 0xbc, 0xfd, 0xe9, 0xac, 0x3c,
  0xf0, 0x79, 0xc2, 0xbc, 0xc0, 0xa9, 0xd2, 0x3d, 0x08, 0xdc, 0x94, 0xbe,
  0x6a, 0xc4, 0x63, 0x3c, 0xc7, 0x8b, 0x30, 0xbd, 0xa8, 0x82, 0x1f, 0x3d,
  0x82, 0xce, 0x17, 0x3d, 0x5f, 0x2d, 0x11, 0xbd, 0x33, 0x2c, 0x18, 0x3d,
  0x08, 0xe4, 0x1d, 0xbd, 0x99, 0x52, 0x9e, 0xbe, 0xb7, 0x3e, 0xd7, 0x3c,
  0xaf, 0x95, 0x04, 0x3e, 0xac, 0xff, 0xa8, 0xbd, 0x2a, 0x00, 0xde, 0xbe,
  0xaa, 0x23, 0x61, 0x3d, 0x2e, 0x6b, 0x72, 0xbe, 0x54, 0x57, 0x7f, 0x3e,
  0x02, 0xb0, 0x9d, 0xbc, 0x90, 0x68, 0x42, 0xbf, 0xea, 0x9a, 0x14, 0xbd,
  0x47, 0x2a, 0x48, 0xbe, 0x1d, 0xa2, 0xce, 0x3c, 0xa1, 0x4b, 0x85, 0xbe,
  0xfc, 0xd1, 0x1d, 0xbe, 0xda, 0xe3, 0xea, 0xbd, 0x1a, 0x62, 0x23, 0xbd,
  0x17, 0x17, 0xed, 0xbd, 0x64, 0xcb, 0xff, 0xbe, 0x57, 0xb9, 0xe0, 0xbd,
  0xcd, 0xf4, 0x25, 0x3d, 0x8f, 0xb8, 0xff, 0x3d, 0xdc, 0xc1, 0x63, 0x3d,
  0xfe, 0xd7, 0x60, 0x3e, 0xd5, 0x71, 0x0b, 0x3e, 0xa9, 0x4c, 0xcd, 0xbe,
  0x26, 0xa8, 0x49, 0xbe, 0x5b, 0xb9, 0x05, 0xbd, 0xf9, 0xdb, 0xe1, 0x3d,
  0xbb, 0x95, 0xb5, 0xbe, 0x1b, 0xb0, 0x35, 0xbe, 0x86, 0x4d, 0x8e, 0x3e,
  0xc5, 0xb4, 0x7a, 0x3e, 0x6c, 0x6b, 0xfe, 0x3d, 0x9a, 0x7e, 0x7b, 0x3e,
  0x7b, 0xf0, 0xf6, 0xbb, 0x5b, 0xd8, 0x94, 0x3e, 0xda, 0xc3, 0xd2, 0x3c,
  0xd9, 0x62, 0xa2, 0xbc, 0x86, 0x56, 0x42, 0x3e, 0xce, 0x26, 0x87, 0x3d,
  0x70, 0xca, 0x8b, 0xbe, 0xe4, 0xbb, 0x15, 0xbe, 0xe0, 0x4a, 0x16, 0x3e,
  0xbb, 0x66, 0x8d, 0x3c, 0x72, 0xc4, 0x04, 0xbe, 0x23, 0x4a, 0xc7, 0x3c,
  0x88, 0x46, 0xff, 0x3d, 0xbb, 0x55, 0x6f, 0x3e, 0xc8, 0x65, 0xb9, 0x3d,
  0x83, 0x18, 0xac, 0xbe, 0x7b, 0xa3, 0x3b, 0xbe, 0xe4, 0x7e, 0x93, 0xbc,
  0xe6, 0xa6, 0xb7, 0x3d, 0x9b, 0xf8, 0x0c, 0xbd, 0xb3, 0x84, 0x09, 0x3e,
  0x5e, 0x52, 0x0b, 0x3e, 0x8a, 0x1e, 0x13, 0xbe, 0x29, 0xdd, 0x8e, 0xbd,
  0x8a, 0x56, 0x09, 0x3e, 0x60, 0x97, 0xc5, 0x3d, 0xb1, 0x9b, 0x1e, 0xbe,
  0xd5, 0x35, 0xce, 0xbd, 0x49, 0x74, 0xac, 0x3d, 0xd2, 0x47, 0xd7, 0x3e,
  0xff, 0x67, 0x8c, 0x3e, 0x9e, 0x45, 0x49, 0xbe, 0x16, 0xa9, 0x74, 0x3e,
  0xe3, 0x93, 0x06, 0xbd, 0xbb, 0xaa, 0x46, 0x3d, 0xf2, 0x58, 0xa5, 0xbd,
  0x02, 0xb4, 0x5e, 0x3c, 0xbf, 0xa1, 0x03, 0xbd, 0xf2, 0x96, 0x36, 0xbe,
  0x05, 0xd0, 0x30, 0xbe, 0x27, 0xe5, 0x61, 0x3d, 0x40, 0x48, 0xa6, 0x3d,
  0xf5, 0x0a, 0x5d, 0xbe, 0x35, 0xaf, 0xd0, 0xbd, 0xae, 0xd2, 0xb0, 0x3d,
  0xea, 0x76, 0x76, 0x3e, 0xe7, 0x81, 0x6a, 0xbd, 0x0a, 0x53, 0xa2, 0xbd,
  0x12, 0x3d, 0x51, 0xbe, 0xbe, 0xc9, 0xa7, 0xbc, 0xd7, 0x93, 0x1f, 0x3d,
  0xe7, 0x79, 0xf7, 0xbd, 0xc8, 0x02, 0x5b, 0x3e, 0x66, 0x88, 0x81, 0xbd,
  0xf9, 0xfe, 0x5c, 0xbe, 0x8b, 0xbe, 0xa2, 0xbe, 0x73, 0x55, 0x0a, 0xbe,
  0x18, 0x5a, 0x26, 0x39, 0x77, 0x10, 0x4d, 0xbe, 0x16, 0xbd, 0x37, 0xbe,
  0x72, 0xf7, 0x3d, 0xbe, 0x9d, 0x21, 0x7b, 0x3e, 0x77, 0xef, 0x7a, 0x3d,
  0xe6, 0x6c, 0xf8, 0x3d, 0x4d, 0x13, 0xec, 0x3d, 0x71, 0x9d, 0xd2, 0xbd,
  0xfe, 0xa2, 0xcc, 0x3b, 0xa7, 0x3b, 0x06, 0xbd, 0xeb, 0xcd, 0xb2, 0x3d,
  0x9e, 0x24, 0x6c, 0xbe, 0x90, 0xc6, 0x23, 0xbd, 0x2b, 0xd0, 0x9a, 0xbd,
  0x22, 0x9f, 0x34, 0x3d, 0x67, 0xe7, 0xc3, 0xbc, 0x6b, 0xda, 0x68, 0xbd,
  0x68, 0xe1, 0x1b, 0xbd, 0x5b, 0x3f, 0x0a, 0x3d, 0xde, 0xea, 0x62, 0x3b,
  0x2a, 0xec, 0x95, 0x3d, 0x93, 0xd2, 0x41, 0x3e, 0x9e, 0xd7, 0xa9, 0xbd,
  0x46, 0xfe, 0xff, 0xff, 0x10, 0x00, 0x00, 0x00, 0x05, 0x00, 0x00, 0x00,
  0x14, 0x00, 0x00, 0x00, 0x2c, 0x00, 0x00, 0x00, 0x02, 0x00, 0x00, 0x00,
  0x10, 0x00, 0x00, 0x00, 0x70, 0x00, 0x00, 0x00, 0x17, 0x00, 0x00, 0x00,
  0x73, 0x65, 0x71, 0x75, 0x65, 0x6e, 0x74, 0x69, 0x61, 0x6c, 0x2f, 0x64,
  0x65, 0x6e, 0x73, 0x65, 0x2f, 0x4d, 0x61, 0x74, 0x4d, 0x75, 0x6c, 0x00,
  0x34, 0xfe, 0xff, 0xff, 0x2a, 0xff, 0xff, 0xff, 0x04, 0x00, 0x00, 0x00,
  0x08, 0x00, 0x00, 0x00, 0xff, 0xff, 0xff, 0xff, 0x70, 0x00, 0x00, 0x00,
  0x00, 0x00, 0x0e, 0x00, 0x18, 0x00, 0x08, 0x00, 0x07, 0x00, 0x0c, 0x00,
  0x10, 0x00, 0x14, 0x00, 0x0e, 0x00, 0x00, 0x00, 0x00, 0x00, 0x00, 0x02,
  0x10, 0x00, 0x00, 0x00, 0x04, 0x00, 0x00, 0x00, 0x10, 0x00, 0x00, 0x00,
  0x2c, 0x00, 0x00, 0x00, 0x01, 0x00, 0x00, 0x00, 0x02, 0x00, 0x00, 0x00,
  0x18, 0x00, 0x00, 0x00, 0x73, 0x65, 0x71, 0x75, 0x65, 0x6e, 0x74, 0x69,
  0x61, 0x6c, 0x2f, 0x66, 0x6c, 0x61, 0x74, 0x74, 0x65, 0x6e, 0x2f, 0x43,
  0x6f, 0x6e, 0x73, 0x74, 0x00, 0x00, 0x00, 0x00, 0x9c, 0xfe, 0xff, 0xff,
  0x92, 0xff, 0xff, 0xff, 0x04, 0x00, 0x00, 0x00, 0x10, 0x00, 0x00, 0x00,
  0x71, 0xdb, 0x17, 0x40, 0x07, 0xf8, 0x00, 0xc0, 0x0c, 0x90, 0x6b, 0xc0,
  0x4b, 0xd8, 0x3a, 0x3e, 0x0a, 0xff, 0xff, 0xff, 0x10, 0x00, 0x00, 0x00,
  0x03, 0x00, 0x00, 0x00, 0x10, 0x00, 0x00, 0x00, 0x3c, 0x00, 0x00, 0x00,
  0x01, 0x00, 0x00, 0x00, 0x04, 0x00, 0x00, 0x00, 0x29, 0x00, 0x00, 0x00,
  0x73, 0x65, 0x71, 0x75, 0x65, 0x6e, 0x74, 0x69, 0x61, 0x6c, 0x2f, 0x64,
  0x65, 0x6e, 0x73, 0x65, 0x5f, 0x31, 0x2f, 0x42, 0x69, 0x61, 0x73, 0x41,
  0x64, 0x64, 0x2f, 0x52, 0x65, 0x61, 0x64, 0x56, 0x61, 0x72, 0x69, 0x61,
  0x62, 0x6c, 0x65, 0x4f, 0x70, 0x00, 0x00, 0x00, 0x60, 0xff, 0xff, 0xff,
  0x00, 0x00, 0x06, 0x00, 0x08, 0x00, 0x04, 0x00, 0x06, 0x00, 0x00, 0x00,
  0x04, 0x00, 0x00, 0x00, 0x40, 0x00, 0x00, 0x00, 0xc8, 0x62, 0x67, 0x3f,
  0xef, 0xc3, 0x65, 0x3f, 0x65, 0x97, 0x97, 0xbf, 0x69, 0x60, 0xe4, 0xbe,
  0x77, 0x98, 0x78, 0xbf, 0x97, 0xda, 0x17, 0xbf, 0xa4, 0xf4, 0xec, 0x3e,
  0x69, 0x77, 0xdf, 0x3e, 0x1e, 0x16, 0x08, 0xbf, 0xb1, 0x57, 0x7b, 0xbe,
  0xcb, 0xb1, 0xb2, 0xbe, 0x71, 0x22, 0x23, 0xbe, 0xd1, 0x5e, 0x18, 0xc0,
  0xcf, 0xfd, 0x2b, 0x40, 0x78, 0xec, 0x62, 0x40, 0x30, 0x36, 0x40, 0x40,
  0xae, 0xff, 0xff, 0xff, 0x10, 0x00, 0x00, 0x00, 0x02, 0x00, 0x00, 0x00,
  0x10, 0x00, 0x00, 0x00, 0x3c, 0x00, 0x00, 0x00, 0x01, 0x00, 0x00, 0x00,
  0x10, 0x00, 0x00, 0x00, 0x27, 0x00, 0x00, 0x00, 0x73, 0x65, 0x71, 0x75,
  0x65, 0x6e, 0x74, 0x69, 0x61, 0x6c, 0x2f, 0x64, 0x65, 0x6e, 0x73, 0x65,
  0x2f, 0x42, 0x69, 0x61, 0x73, 0x41, 0x64, 0x64, 0x2f, 0x52, 0x65, 0x61,
  0x64, 0x56, 0x61, 0x72, 0x69, 0x61, 0x62, 0x6c, 0x65, 0x4f, 0x70, 0x00,
  0x04, 0x00, 0x06, 0x00, 0x04, 0x00, 0x00, 0x00, 0x00, 0x00, 0x0e, 0x00,
  0x14, 0x00, 0x04, 0x00, 0x00, 0x00, 0x08, 0x00, 0x0c, 0x00, 0x10, 0x00,
  0x0e, 0x00, 0x00, 0x00, 0x10, 0x00, 0x00, 0x00, 0x01, 0x00, 0x00, 0x00,
  0x1c, 0x00, 0x00, 0x00, 0x2c, 0x00, 0x00, 0x00, 0x04, 0x00, 0x00, 0x00,
  0x01, 0x00, 0x00, 0x00, 0x40, 0x00, 0x00, 0x00, 0x03, 0x00, 0x00, 0x00,
  0x01, 0x00, 0x00, 0x00, 0x0c, 0x00, 0x00, 0x00, 0x63, 0x6f, 0x6e, 0x76,
  0x32, 0x64, 0x5f, 0x69, 0x6e, 0x70, 0x75, 0x74, 0x00, 0x00, 0x00, 0x00,
  0xfc, 0xff, 0xff, 0xff, 0x04, 0x00, 0x04, 0x00, 0x04, 0x00, 0x00, 0x00
};


unsigned int model_tflite_len = 12384;// Fill the int in `src/model.cc` here